const unsigned char vibration_model[] = {
28,0,0,0,84,70,76,51,20,0,32,0,28,0,24,0,20,0,16,0,12,0,0,0,8,0,4,0,20,0,0,0,28,0,0,0,152,0,0,0,240,0,0,0,244,78,0,0,4,79,0,0,136,83,0,0,3,0,0,0,1,0,0,0,16,0,0,0,0,0,10,0,16,0,12,0,8,0,4,0,10,0,0,0,12,0,0,0,28,0,0,0,60,0,0,0,15,0,0,0,115,101,114,118,105,110,103,95,100,101,102,97,117,108,116,0,1,0,0,0,4,0,0,0,144,255,255,255,7,0,0,0,4,0,0,0,8,0,0,0,111,117,116,112,117,116,95,48,0,0,0,0,1,0,0,0,4,0,0,0,246,176,255,255,4,0,0,0,15,0,0,0,107,101,114,97,115,95,116,101,110,115,111,114,95,53,57,0,2,0,0,0,52,0,0,0,4,0,0,0,220,255,255,255,10,0,0,0,4,0,0,0,19,0,0,0,67,79,78,86,69,82,83,73,79,78,95,77,69,84,65,68,65,84,65,0,8,0,12,0,8,0,4,0,8,0,0,0,9,0,0,0,4,0,0,0,19,0,0,0,109,105,110,95,114,117,110,116,105,109,101,95,118,101,114,115,105,111,110,0,11,0,0,0,0,78,0,0,248,77,0,0,220,77,0,0,76,76,0,0,60,1,0,0,172,0,0,0,164,0,0,0,156,0,0,0,148,0,0,0,116,0,0,0,4,0,0,0,158,177,255,255,4,0,0,0,96,0,0,0,16,0,0,0,0,0,0,0,8,0,14,0,8,0,4,0,8,0,0,0,16,0,0,0,36,0,0,0,0,0,6,0,8,0,4,0,6,0,0,0,4,0,0,0,0,0,0,0,12,0,24,0,20,0,16,0,12,0,4,0,12,0,0,0,63,12,140,176,228,50,70,127,2,0,0,0,2,0,0,0,4,0,0,0,6,0,0,0,50,46,50,48,46,48,0,0,10,178,255,255,4,0,0,0,16,0,0,0,49,46,53,46,48,0,0,0,0,0,0,0,0,0,0,0,80,174,255,255,84,174,255,255,88,174,255,255,50,178,255,255,4,0,0,0,128,0,0,0,171,35,254,60,240,144,14,60,76,108,205,60,18,146,147,60,85,226,232,60,189,22,174,187,81,231,169,187,139,122,163,60,219,254,79,188,17,20,243,187,122,232,214,60,164,186,136,188,19,46,49,186,199,241,123,59,252,221,21,186,174,99,127,188,82,123,222,186,204,44,203,60,64,207,149,60,164,24,193,59,137,237,80,61,189,56,229,188,221,9,212,60,51,55,210,188,244,62,17,61,26,34,23,188,70,204,57,58,75,9,212,60,170,69,194,60,192,59,29,188,178,56,168,59,49,180,224,187,190,178,255,255,4,0,0,0,0,75,0,0,207,231,232,189,54,94,239,189,23,202,199,61,203,139,68,190,250,240,147,189,29,134,178,188,165,162,162,61,143,64,68,187,248,141,166,60,6,217,20,190,66,232,180,189,249,165,155,61,59,254,212,188,69,149,32,190,149,225,0,188,239,15,163,189,13,210,62,189,193,41,8,62,131,253,26,190,163,82,24,190,174,153,52,189,18,56,57,190,57,187,69,62,118,146,221,61,92,27,49,190,69,43,223,189,167,28,149,60,181,110,153,61,40,238,142,189,46,228,15,62,250,92,255,189,16,129,1,59,155,93,25,62,90,151,0,190,107,216,253,60,216,33,75,62,169,91,31,189,121,80,246,60,247,217,83,62,152,247,10,190,105,245,30,62,6,125,75,189,154,253,40,61,249,183,77,62,10,50,66,189,13,186,149,189,106,75,30,190,104,187,220,61,79,55,148,61,100,238,56,62,143,205,77,189,249,21,196,189,240,218,227,61,230,188,129,59,44,125,92,61,255,50,203,188,33,22,42,62,104,119,191,61,172,8,104,189,46,86,220,189,190,85,42,190,66,248,143,189,53,98,185,61,134,67,65,190,128,180,200,61,160,182,25,62,109,208,196,189,186,27,22,190,237,197,11,189,118,241,70,190,254,139,169,61,95,186,145,189,30,119,79,61,241,218,53,62,86,195,187,60,144,93,12,62,180,112,28,61,30,253,232,61,158,224,22,190,8,189,34,61,202,158,47,62,133,248,64,190,26,173,77,187,127,94,136,189,137,16,133,189,99,138,19,62,223,226,204,189,149,231,152,189,12,134,57,62,69,151,75,61,140,106,20,60,7,133,68,62,165,99,10,62,42,22,58,60,36,250,190,189,154,46,205,61,126,155,4,62,149,109,153,60,240,7,23,190,53,217,16,190,158,75,254,189,129,42,186,61,61,62,26,190,89,52,28,62,41,241,189,189,107,3,191,186,210,222,92,61,190,20,7,189,233,18,242,189,6,91,0,190,239,130,249,61,163,103,131,61,239,40,137,189,0,23,5,62,178,10,71,189,8,106,57,62,126,137,33,62,157,7,190,61,120,171,177,188,20,173,188,189,255,138,215,188,168,209,8,190,233,190,44,186,6,185,254,189,213,220,39,61,90,205,71,62,216,129,40,61,34,221,116,60,115,158,199,189,230,211,214,61,207,251,19,60,52,159,184,188,15,178,47,189,143,140,159,189,142,220,113,189,192,171,6,62,75,164,165,59,45,227,63,61,244,65,30,190,247,181,82,61,24,200,62,62,134,249,65,190,13,37,207,61,114,226,137,188,43,226,42,57,94,55,22,190,159,51,190,61,73,12,5,190,144,54,176,187,27,144,230,61,93,105,87,190,167,95,99,188,129,49,173,61,93,227,252,60,174,133,9,61,200,41,187,61,136,22,5,189,252,196,254,61,141,138,3,190,8,68,15,190,124,204,33,189,217,76,36,61,69,222,253,61,86,91,3,188,24,82,15,190,232,194,143,61,212,153,97,61,36,31,125,189,197,57,62,190,98,187,245,189,150,241,45,190,210,100,140,60,96,5,237,188,99,145,7,61,204,199,151,61,40,12,16,62,88,67,26,62,27,148,183,189,106,223,37,62,111,152,183,189,97,149,72,190,94,164,104,188,106,159,227,189,71,193,71,190,176,159,8,188,205,184,53,190,142,215,55,190,57,210,192,61,201,181,96,61,29,117,55,189,96,138,58,190,21,253,34,62,210,25,4,189,38,100,196,188,1,12,138,189,6,134,1,190,66,234,9,62,208,253,139,61,235,159,243,61,244,94,41,61,41,65,12,187,93,31,22,190,60,124,33,62,75,236,108,189,94,170,7,190,11,7,4,62,249,59,23,62,216,81,8,190,134,196,219,189,32,85,0,62,56,75,78,190,170,173,11,62,56,111,235,61,199,239,13,188,224,193,132,60,64,194,118,189,174,126,89,61,229,78,29,61,221,45,60,61,93,218,227,187,21,87,169,61,242,167,33,190,65,226,177,61,155,102,47,190,200,134,144,61,22,251,243,189,123,122,49,190,167,9,43,62,96,163,119,189,84,223,219,189,103,62,50,190,173,211,128,60,60,169,7,188,80,49,91,189,79,87,220,61,249,236,230,61,251,16,92,61,210,124,83,190,142,176,41,61,244,185,44,189,212,106,76,189,164,117,24,190,136,178,21,62,128,47,154,189,98,116,87,61,145,221,14,190,98,231,187,61,71,243,0,190,208,146,96,189,74,83,5,187,245,89,173,60,145,198,58,62,246,254,146,61,94,75,145,188,30,169,197,189,33,148,50,190,135,27,227,61,164,109,209,61,52,175,41,190,200,9,64,189,28,210,12,190,35,221,7,61,170,88,44,190,50,172,39,59,133,249,18,190,118,231,224,61,141,99,58,62,47,251,197,61,100,49,173,61,145,122,189,61,27,217,52,190,83,18,254,189,163,143,177,189,152,31,209,61,14,94,175,189,167,135,132,61,90,149,68,188,200,125,81,61,234,95,29,61,2,189,35,190,123,37,213,60,130,167,10,62,54,48,12,62,173,24,62,190,210,243,199,189,236,182,186,61,104,242,153,188,66,138,154,60,217,189,1,62,4,135,222,61,199,216,52,189,101,79,29,190,234,61,251,61,200,3,2,190,190,19,230,189,222,137,45,189,111,79,112,61,31,190,11,62,253,89,15,62,193,46,0,62,90,208,18,62,171,183,27,190,226,179,74,62,61,211,21,190,134,170,12,190,212,119,209,61,76,220,5,62,220,160,24,62,63,183,191,61,105,5,86,189,212,180,226,187,196,58,50,189,30,181,55,190,25,49,129,188,19,234,188,189,218,241,77,189,15,158,108,61,253,182,46,62,145,159,144,60,60,130,70,190,110,169,125,189,173,209,1,189,137,212,167,61,207,161,230,59,112,148,33,190,42,90,222,189,159,185,247,189,248,50,128,59,138,224,49,190,225,255,50,62,197,98,31,190,198,220,202,61,207,246,188,189,24,200,72,59,222,66,48,189,137,209,43,62,41,38,226,189,64,7,176,189,32,192,237,61,42,73,19,61,164,202,16,190,222,254,57,189,131,80,21,61,222,126,135,61,153,202,31,62,184,37,97,187,248,255,19,62,226,126,46,61,159,93,179,61,181,125,17,190,27,13,10,62,149,65,2,190,204,53,133,188,21,184,134,61,152,229,9,190,113,85,42,190,254,18,19,190,248,4,58,189,153,157,204,60,73,248,178,61,56,38,200,188,120,179,28,60,139,55,33,190,72,192,202,189,228,129,207,59,7,86,14,190,56,69,250,189,218,9,137,188,49,88,150,61,71,81,35,190,153,194,23,61,216,160,251,189,223,29,36,61,153,128,128,188,110,184,64,62,242,189,240,61,119,129,38,190,30,70,166,61,176,211,234,61,10,216,161,60,188,140,145,61,228,179,135,189,167,82,156,189,166,36,234,188,191,78,76,190,109,29,121,189,53,209,43,62,79,2,205,189,64,88,217,188,192,232,197,61,140,6,242,189,185,0,9,62,37,105,93,61,192,140,61,190,143,248,116,61,19,51,53,62,210,56,27,190,28,114,64,61,38,210,45,62,108,63,64,190,230,217,97,188,92,131,15,190,59,30,177,61,94,72,29,62,51,94,64,62,242,206,206,59,208,67,112,189,130,121,70,62,104,230,210,189,93,138,17,61,223,123,46,61,230,251,28,190,71,220,208,188,251,179,4,190,151,47,3,190,65,210,140,61,45,133,214,61,188,55,166,60,36,161,31,62,180,105,5,189,253,44,132,59,17,244,3,62,234,194,188,188,120,52,236,61,4,35,227,61,66,182,100,60,244,137,215,61,13,14,21,61,18,116,65,62,209,125,252,189,70,45,44,190,216,84,171,61,99,6,162,189,76,177,237,187,126,8,68,62,32,59,173,61,83,234,10,190,122,220,0,190,96,41,45,190,184,95,40,190,5,149,63,62,207,253,187,60,206,4,188,187,10,38,254,59,168,23,76,190,43,193,61,190,139,8,60,60,50,62,187,187,47,92,14,62,227,102,50,62,235,192,60,189,101,106,145,61,174,240,238,188,241,65,73,61,3,113,214,61,97,81,145,189,32,49,5,62,183,149,57,190,88,25,243,61,214,201,30,62,73,114,210,189,68,244,174,61,207,125,123,189,243,194,106,188,202,27,80,60,124,74,29,62,142,91,27,62,211,27,75,190,210,134,10,190,214,179,20,190,157,130,29,189,203,145,82,189,184,104,11,62,16,41,239,61,232,194,52,62,182,186,208,61,128,129,47,190,56,0,196,61,119,23,40,187,82,6,7,190,146,67,240,61,214,81,189,189,243,217,200,61,7,246,122,61,164,10,115,61,57,30,81,189,66,65,33,190,218,205,173,187,171,166,244,189,124,189,234,60,165,64,109,188,232,222,144,61,89,242,109,189,43,157,17,62,178,156,181,61,62,77,55,62,74,67,143,189,178,1,218,189,239,122,43,61,167,234,139,189,219,207,61,190,218,98,165,189,140,255,175,189,118,237,5,61,9,139,133,61,159,183,164,61,160,9,193,189,22,196,155,189,202,58,218,61,176,91,4,62,235,201,35,189,135,97,246,61,16,108,66,61,203,61,255,61,110,214,46,189,219,51,7,190,160,173,47,62,210,244,26,62,47,11,245,60,68,18,239,61,91,127,183,61,57,251,19,190,91,207,130,61,228,97,207,186,50,116,81,189,86,163,140,61,1,146,218,61,107,194,168,188,190,113,34,62,127,177,64,187,168,177,55,190,191,92,0,61,98,63,36,190,64,115,168,188,16,30,39,188,79,100,15,190,213,124,9,190,226,196,13,62,45,91,17,190,112,173,115,60,161,17,36,190,206,194,162,60,68,100,183,189,7,133,184,61,151,180,74,189,153,53,166,188,32,140,156,188,224,143,143,189,161,135,150,61,5,148,199,60,131,87,3,61,236,45,249,189,235,58,225,61,150,180,59,61,234,216,7,190,9,77,156,60,98,184,128,61,129,177,128,60,81,51,62,189,64,31,186,61,214,68,28,190,171,7,221,189,167,229,202,61,8,112,144,188,9,236,184,61,161,128,145,60,148,131,118,61,147,100,85,61,26,151,196,189,58,33,43,190,246,24,10,190,95,160,9,190,112,230,16,190,205,131,240,59,70,210,33,190,219,200,125,61,91,178,123,189,34,168,214,61,172,242,32,62,15,239,218,61,162,58,150,60,139,224,150,60,35,111,62,62,204,3,65,60,46,84,14,60,246,229,41,189,89,110,147,189,6,53,119,61,236,21,71,62,130,63,7,62,44,152,17,190,18,121,207,188,198,125,115,189,157,143,221,188,52,244,2,190,228,228,40,190,206,176,143,188,66,254,124,188,215,166,1,190,229,237,38,190,177,107,230,189,151,57,241,188,82,64,15,61,211,247,152,189,169,163,47,62,106,175,83,61,108,123,26,190,223,245,160,189,209,205,188,189,226,155,62,190,207,161,230,189,100,170,179,61,91,231,91,190,126,132,81,188,146,54,170,61,246,5,198,59,99,58,196,61,209,193,44,62,255,113,47,189,48,232,150,189,210,21,222,60,91,171,85,190,138,52,237,189,148,194,18,189,91,6,199,189,109,35,170,61,126,190,7,61,179,170,188,61,175,83,47,62,48,72,25,62,243,48,215,189,183,90,215,61,55,103,67,62,28,102,28,190,97,137,6,62,248,176,78,189,99,111,180,189,18,248,24,190,181,190,180,61,243,216,58,189,232,11,10,62,30,134,64,62,85,4,129,61,174,55,17,61,166,186,177,60,75,73,21,190,69,124,3,60,72,161,134,61,191,101,243,61,225,10,10,62,5,52,223,189,158,253,52,190,22,89,38,190,8,147,2,190,15,171,34,190,13,134,214,189,59,101,82,62,252,153,233,61,157,59,152,189,223,16,10,190,12,44,175,61,74,19,167,61,203,203,248,61,238,23,139,188,15,139,138,60,78,229,153,60,249,102,150,61,134,170,178,60,214,253,6,189,196,35,94,189,207,69,193,188,97,252,237,61,141,139,59,190,80,171,183,61,116,163,16,62,205,99,231,61,97,116,47,61,211,117,247,189,120,158,52,190,46,192,24,62,74,52,41,62,68,195,152,61,76,210,225,60,248,147,51,61,230,133,29,190,213,73,19,190,237,225,68,61,83,239,201,59,80,142,39,189,253,167,255,189,47,47,9,62,96,80,175,61,173,146,61,62,122,177,132,61,0,118,146,189,230,26,92,61,238,190,64,190,94,209,218,189,221,69,23,190,234,159,4,62,13,150,249,189,175,228,21,190,86,27,145,61,58,131,179,188,102,161,47,62,66,51,201,189,4,26,105,61,149,146,6,62,53,254,35,61,39,158,227,188,187,185,209,61,243,224,66,190,61,218,175,189,158,158,7,60,225,17,72,61,181,234,157,60,221,50,113,60,14,83,89,190,246,167,186,189,3,181,149,188,163,58,132,60,191,107,152,189,221,121,58,62,58,211,217,61,87,243,21,189,79,4,244,60,143,50,158,61,40,66,48,62,10,85,224,189,70,151,31,190,244,195,33,190,107,212,48,62,208,113,175,61,7,254,158,189,80,207,203,189,64,209,50,190,105,63,28,62,101,213,159,60,14,69,98,190,129,181,189,189,1,45,215,60,228,62,236,59,246,56,215,60,153,30,240,189,239,99,90,190,103,155,8,188,165,25,164,61,12,186,53,189,200,22,84,189,9,6,177,188,9,115,1,62,97,249,153,60,123,243,48,190,90,252,13,62,147,182,244,59,7,30,23,190,200,173,84,188,76,44,195,189,73,45,161,189,84,221,11,190,14,34,165,61,235,231,56,190,9,43,180,187,115,28,148,189,8,103,76,61,46,167,237,189,166,153,189,187,19,89,239,189,174,132,114,60,211,11,35,190,138,184,245,189,191,127,128,61,181,211,235,189,57,238,238,188,184,34,53,189,129,119,4,62,158,76,63,190,60,153,165,189,196,5,164,61,186,68,250,61,183,77,156,61,102,13,205,189,6,3,247,60,220,45,4,190,213,10,72,190,219,4,216,189,13,3,15,190,11,140,140,189,215,20,246,59,61,216,1,61,232,244,229,61,93,90,158,61,221,219,246,60,50,149,26,190,66,168,156,187,217,40,207,189,200,48,240,59,106,127,141,189,211,219,7,62,203,30,9,62,64,104,248,61,234,165,188,189,30,104,155,60,90,171,226,61,38,4,13,60,73,189,183,189,181,185,28,62,10,75,24,62,167,112,55,61,147,136,29,62,187,45,24,190,3,1,15,62,239,61,240,61,160,201,5,62,211,110,169,189,10,94,68,60,213,240,49,62,115,23,219,189,239,114,137,61,245,80,137,189,212,44,15,62,227,7,194,189,212,239,242,61,152,59,33,190,185,121,164,61,129,185,47,189,186,246,200,189,241,152,183,60,204,115,23,190,189,106,29,62,46,14,231,61,205,103,185,189,125,238,11,62,241,11,55,190,102,41,36,190,38,111,6,190,13,153,24,190,138,9,63,62,19,169,73,61,214,53,138,60,200,154,185,61,221,100,40,190,108,47,178,189,172,11,52,62,164,247,204,61,174,70,43,190,251,116,1,62,118,82,4,190,201,16,252,61,22,143,223,61,57,117,230,188,248,129,129,60,222,81,169,189,156,182,247,61,184,250,137,186,208,133,29,187,229,216,66,189,220,250,129,189,185,55,5,62,142,168,180,61,60,183,43,190,64,63,29,189,3,57,137,61,141,148,10,62,197,184,135,61,19,23,127,61,23,147,66,190,116,113,207,189,144,36,33,190,35,147,12,190,159,31,241,188,142,186,164,61,183,194,148,61,204,225,41,189,245,88,29,61,111,76,170,188,241,16,92,189,238,122,140,189,194,26,182,61,93,170,253,60,78,16,99,61,145,241,164,187,22,104,27,62,64,243,232,61,6,85,49,190,111,181,153,61,182,112,9,62,64,0,30,190,111,227,25,190,147,233,14,190,76,182,71,189,179,171,190,189,11,129,197,189,128,242,28,190,100,86,216,61,254,35,15,189,14,90,224,189,44,150,34,60,168,80,122,61,92,48,32,61,43,108,176,61,167,126,37,60,180,126,71,190,229,187,248,61,186,216,181,189,114,198,27,62,234,108,159,61,157,167,219,189,14,107,32,190,117,154,46,62,46,199,30,62,197,146,10,190,237,117,167,61,234,247,24,62,78,117,191,61,178,148,245,189,222,213,63,190,61,72,51,190,203,167,46,62,185,235,109,61,49,75,173,188,102,223,19,190,90,96,57,190,145,214,21,62,254,156,50,60,188,115,102,188,143,184,238,61,113,126,168,189,99,200,5,62,26,21,244,60,77,83,174,61,86,52,69,190,190,232,20,62,67,114,196,61,74,146,254,189,108,196,48,189,197,123,195,61,238,151,82,61,54,79,251,189,174,84,150,61,56,130,178,61,152,95,4,62,209,6,17,62,185,55,255,61,148,219,5,62,112,190,147,189,79,172,23,189,238,43,10,189,93,141,72,62,46,122,191,188,32,159,76,190,252,242,236,61,219,126,28,61,24,183,243,189,215,104,55,61,102,89,185,188,41,146,55,190,166,178,72,61,38,67,144,60,107,243,156,189,90,190,50,189,176,248,68,58,205,126,176,61,189,59,184,188,104,174,31,62,18,192,59,190,232,173,30,62,161,74,19,62,195,42,43,190,45,152,199,61,99,72,3,62,75,241,76,190,247,93,22,60,224,193,72,190,238,233,116,189,110,39,95,61,1,162,68,189,65,196,172,189,86,50,133,189,125,254,127,61,57,117,52,61,222,59,58,62,10,48,31,62,143,185,131,59,197,254,209,189,164,96,148,189,41,56,17,62,119,11,81,61,151,129,163,189,248,4,252,189,28,67,218,189,109,120,58,61,79,1,182,189,90,96,209,60,86,77,244,188,105,175,219,60,242,130,95,61,45,137,26,188,175,244,188,189,209,126,112,189,27,204,196,61,17,75,204,189,143,212,22,190,33,32,66,190,39,61,20,61,177,45,140,188,228,93,180,61,244,147,45,61,91,132,8,62,192,151,55,190,42,132,144,61,233,232,16,190,64,114,7,62,64,78,179,189,229,243,75,189,27,77,13,190,222,54,16,62,187,37,7,62,165,4,233,61,142,241,140,189,72,234,184,61,163,175,222,60,217,3,214,189,221,168,81,189,53,56,4,62,38,182,188,61,181,217,154,189,170,225,168,59,154,207,174,61,253,230,118,189,144,134,150,60,142,62,151,61,168,209,99,188,199,11,195,189,251,170,65,190,186,18,177,189,93,255,177,61,89,242,132,189,105,159,76,189,238,39,182,61,126,28,1,62,4,135,2,189,209,142,78,190,202,99,100,189,186,85,178,61,241,163,172,188,99,231,214,60,185,4,188,189,26,135,32,190,136,148,67,190,227,57,216,61,213,171,22,189,194,124,66,189,125,182,163,61,126,205,18,62,177,13,139,61,247,100,148,61,76,79,170,189,145,116,134,188,219,19,169,189,200,182,189,60,66,213,21,62,158,4,150,189,208,75,167,189,78,189,31,62,134,255,46,61,31,41,172,189,197,125,216,59,0,172,203,189,109,59,129,189,125,140,138,189,25,232,212,61,42,212,235,61,30,253,68,61,142,148,121,188,124,161,233,189,214,249,208,189,15,114,2,62,197,240,65,62,127,26,81,62,214,158,72,62,212,89,141,188,76,180,174,60,166,138,53,188,20,182,27,62,33,69,69,62,185,167,137,61,62,240,151,61,118,114,184,189,198,200,188,61,92,235,84,62,226,107,242,189,47,190,136,61,223,89,226,189,81,128,60,62,139,205,55,188,250,197,58,62,4,27,39,188,214,219,138,189,161,1,16,190,143,241,228,61,235,66,21,62,115,238,209,61,194,39,175,61,204,164,90,60,73,43,147,188,156,207,122,61,4,105,93,188,48,132,6,190,80,104,6,190,229,14,216,61,95,196,181,61,125,117,133,188,238,144,29,61,83,18,173,61,146,4,46,62,100,70,221,189,10,190,149,189,251,137,83,62,221,197,249,61,229,194,161,189,87,67,142,60,89,98,74,62,228,169,89,62,148,182,70,62,141,169,173,61,66,251,75,62,199,68,218,60,14,250,1,62,44,250,84,62,146,104,22,190,221,69,247,189,6,68,161,61,32,14,46,61,76,106,170,61,116,1,132,61,95,169,109,61,35,194,25,189,37,127,244,188,64,117,253,189,173,199,31,61,87,91,59,62,204,80,70,62,53,200,15,62,82,28,142,61,135,187,87,188,168,163,27,62,221,183,18,62,199,31,208,189,231,123,218,189,114,113,231,61,135,65,204,189,87,207,87,62,35,82,156,188,90,10,101,189,109,137,15,190,178,210,123,61,64,163,242,189,223,54,33,189,240,164,30,189,54,209,7,190,56,142,8,190,197,13,184,60,138,227,10,190,69,168,11,189,166,244,68,62,28,207,12,62,236,193,215,189,158,211,13,190,242,193,2,62,170,77,12,190,9,25,253,61,0,231,251,59,65,37,111,188,132,16,233,61,56,43,145,61,245,139,6,190,23,40,48,62,131,198,181,61,52,93,46,62,246,221,74,62,143,12,147,61,162,193,218,61,32,103,24,190,29,154,176,189,199,201,183,60,5,116,141,189,167,83,198,61,199,125,95,61,167,182,216,188,164,62,137,61,140,247,148,189,247,66,165,61,104,76,5,62,197,45,220,189,3,154,134,189,18,101,7,190,16,189,252,61,156,189,199,189,40,21,61,62,26,155,26,188,66,39,186,189,177,116,170,61,181,166,22,62,121,8,42,61,74,213,213,61,42,219,232,61,139,145,136,189,41,17,33,62,152,144,187,60,69,105,244,60,28,107,24,186,226,122,242,189,121,232,61,62,145,145,2,62,201,45,195,189,68,23,247,61,148,120,88,61,210,221,218,188,46,250,144,61,70,105,134,188,76,149,36,62,49,117,205,189,200,85,95,61,40,9,188,188,4,205,53,188,15,241,161,189,183,231,109,61,202,224,2,62,28,187,29,62,199,94,253,187,111,130,19,190,69,194,1,190,242,190,205,189,204,215,155,189,183,220,249,61,63,201,247,187,7,170,241,188,161,109,179,188,253,23,68,61,45,234,7,190,169,222,181,61,63,249,238,189,64,194,59,62,115,161,12,61,103,49,17,61,44,114,227,189,203,161,230,61,68,27,239,187,141,200,65,62,183,112,23,190,178,95,151,188,133,198,229,59,183,225,129,188,133,50,132,61,101,44,30,189,191,175,8,189,64,105,43,62,19,80,70,62,104,45,51,189,120,103,212,59,26,156,248,61,23,1,12,190,189,86,136,188,70,172,58,189,157,247,191,61,38,26,52,62,254,223,21,189,165,19,95,61,250,247,97,61,25,231,28,189,46,252,10,61,147,4,135,61,198,128,130,61,55,14,73,61,163,216,96,61,67,189,111,61,205,121,164,61,118,96,15,190,165,128,31,62,29,36,198,189,252,134,10,62,207,27,70,189,210,152,138,189,131,36,29,62,220,196,199,61,168,91,85,189,230,16,17,190,39,128,131,61,29,70,75,62,202,177,34,62,131,76,156,189,26,165,248,189,197,207,194,60,89,81,19,190,170,5,237,59,190,130,185,189,67,216,30,190,253,145,9,62,128,124,96,189,136,4,155,188,208,78,21,189,80,82,130,189,86,108,66,61,64,50,248,189,196,208,215,61,219,123,70,62,183,35,68,61,166,245,32,188,46,98,111,59,62,238,0,61,21,166,172,189,75,80,33,190,50,87,172,61,71,112,200,189,56,110,56,189,159,30,20,62,139,18,158,189,241,126,28,62,228,191,186,188,117,64,121,61,204,201,174,61,165,128,94,189,186,29,31,189,83,56,168,189,83,187,25,190,204,196,251,61,152,184,211,188,78,246,43,62,94,69,24,190,25,133,153,189,224,204,203,189,78,7,0,190,72,131,196,189,196,255,12,60,204,223,226,61,125,131,249,185,71,55,33,62,46,82,76,189,74,169,235,189,53,0,144,61,65,6,146,61,120,228,41,62,63,191,112,61,159,77,99,189,77,202,184,189,155,236,29,189,111,57,21,62,183,225,21,190,12,88,197,189,202,238,11,62,179,175,158,61,69,75,68,190,249,73,51,61,78,22,143,61,59,129,244,61,193,75,0,190,25,11,185,61,133,154,186,61,230,202,38,190,156,150,12,62,175,79,52,190,14,25,134,188,148,214,28,62,219,6,43,190,251,190,86,60,83,194,174,61,98,180,36,190,165,193,131,189,189,186,41,60,54,45,39,61,119,1,254,189,56,140,162,189,60,85,234,189,85,211,10,61,29,124,17,190,158,161,230,61,128,181,254,58,38,47,30,62,208,21,43,190,55,42,198,189,171,42,46,190,15,150,251,61,24,184,108,60,178,77,184,60,32,16,141,61,54,253,137,61,7,172,10,62,146,98,196,189,125,147,139,61,94,207,86,189,0,220,170,189,30,41,85,61,201,254,33,62,118,17,95,61,164,241,139,61,249,100,8,62,19,215,82,188,113,13,105,60,85,222,130,189,241,209,254,60,179,166,252,189,164,209,204,189,99,64,244,189,34,22,238,61,194,239,80,61,240,216,14,190,25,85,214,61,195,218,157,61,7,146,184,188,237,188,22,62,0,254,171,61,236,23,8,190,159,185,74,189,165,221,190,61,16,0,30,188,218,162,50,62,221,102,175,189,113,213,193,61,244,11,248,189,56,10,175,189,65,47,211,61,127,33,120,189,141,122,197,59,110,103,224,189,202,38,165,188,48,110,218,61,200,20,60,190,247,86,53,190,192,238,152,189,222,15,32,61,76,73,187,189,210,9,231,61,234,193,33,190,199,219,30,62,161,30,188,187,165,31,118,189,104,112,213,61,196,158,31,190,179,176,75,189,43,242,3,61,253,219,233,61,33,12,103,189,35,153,47,61,209,27,96,61,89,44,29,62,172,150,47,190,215,97,152,188,2,173,205,189,110,235,128,189,8,125,46,60,56,188,74,190,238,146,86,61,139,83,66,190,149,0,202,60,45,80,54,61,71,141,27,62,11,61,21,60,12,46,128,189,191,5,73,61,18,166,57,189,203,123,148,61,0,217,175,61,192,174,189,189,171,82,37,62,234,169,165,189,88,62,159,61,254,161,50,190,196,88,246,188,229,117,12,190,234,232,9,62,175,134,33,190,52,153,55,190,36,99,254,189,249,255,198,61,57,25,8,61,199,57,214,189,93,206,52,190,210,136,47,61,85,237,231,61,92,10,213,61,71,232,52,189,40,31,14,61,136,144,244,61,156,47,167,189,202,150,59,190,100,88,141,61,124,123,199,61,77,30,234,61,101,12,77,189,182,184,24,190,16,40,42,62,28,5,70,60,149,81,178,61,168,48,213,61,33,110,51,190,85,34,71,190,20,89,29,62,91,8,38,190,89,1,240,188,52,155,14,190,222,182,30,60,150,21,41,62,171,208,136,187,199,210,59,62,198,123,6,190,245,21,167,60,40,118,242,58,89,155,112,189,127,170,149,189,181,204,80,62,116,121,181,60,47,93,44,61,134,192,172,61,131,41,16,61,116,237,169,61,58,211,132,188,49,24,95,189,163,209,129,185,19,219,148,189,164,224,172,189,71,51,128,189,164,253,40,62,60,151,36,189,81,228,231,189,16,178,54,62,32,51,135,189,237,221,25,62,123,148,27,62,79,235,150,61,228,123,133,187,189,246,23,190,31,225,42,62,71,3,35,62,184,104,156,61,228,97,12,62,171,101,56,62,73,113,70,62,70,55,210,61,53,194,75,62,38,126,243,188,174,240,27,190,160,223,195,189,70,33,74,62,231,68,94,61,124,165,248,188,182,89,128,60,36,99,26,190,123,50,14,189,30,215,82,62,152,19,21,190,181,158,102,61,123,244,238,189,98,185,18,62,80,231,70,62,198,88,204,61,149,211,90,61,149,208,75,189,60,128,90,189,96,94,145,188,118,149,215,189,60,223,165,189,119,217,67,189,158,216,93,61,121,213,55,61,89,193,235,189,169,16,174,61,185,189,187,61,20,22,211,189,155,62,228,188,119,116,239,61,205,203,146,61,240,185,182,61,139,127,211,61,211,81,196,61,238,252,127,188,94,43,109,61,95,173,197,188,248,87,44,62,144,231,233,61,249,56,217,60,0,18,18,62,222,0,212,61,83,29,94,189,121,104,46,62,103,212,49,62,162,233,3,62,198,161,236,189,127,190,221,61,227,99,222,61,105,229,49,62,97,153,163,189,34,1,158,61,143,28,199,188,28,48,235,188,133,23,33,61,180,25,9,190,41,146,6,61,228,121,241,61,78,38,124,189,102,240,21,61,80,63,78,61,100,163,130,60,190,116,1,61,198,212,190,188,74,33,250,61,46,63,16,190,37,113,173,60,98,151,45,62,183,129,117,61,119,156,176,187,192,244,225,61,7,214,205,189,241,206,118,189,144,110,108,61,100,254,81,188,193,208,41,59,83,241,30,61,97,227,58,62,106,163,255,61,36,119,241,189,165,197,95,61,75,114,52,62,193,13,28,62,135,184,189,61,51,68,135,189,145,72,154,61,9,159,32,62,120,37,188,189,129,56,51,62,69,197,2,62,248,221,20,190,61,129,149,61,9,200,19,62,150,213,176,61,33,231,83,187,89,93,182,61,79,111,157,61,101,96,198,189,157,56,235,61,87,230,156,189,210,83,191,189,201,177,22,60,113,195,165,189,95,197,134,189,156,197,165,61,77,229,199,61,21,157,250,61,236,183,15,190,248,157,226,61,3,31,135,61,161,48,49,62,52,41,137,60,42,11,218,61,243,223,129,189,111,236,182,61,149,214,254,187,39,90,81,189,242,172,68,189,179,188,101,189,59,80,162,189,163,115,250,61,54,64,149,189,217,91,17,188,91,52,159,61,189,11,28,190,75,174,53,190,222,20,228,189,101,53,162,189,141,31,1,62,234,161,17,190,158,239,246,189,60,7,212,189,159,251,35,190,131,67,17,62,253,44,240,61,38,230,39,61,25,41,200,60,80,193,42,190,34,119,39,190,210,112,3,62,77,81,184,61,42,197,169,61,123,223,197,59,133,56,11,61,49,113,203,60,108,52,175,60,82,200,154,189,148,97,184,189,45,44,251,189,5,139,35,61,180,12,9,62,42,205,228,61,51,181,238,61,133,29,224,189,157,61,147,187,152,190,80,189,252,243,38,61,106,34,6,61,1,169,185,188,126,140,189,61,120,247,132,61,90,145,3,61,54,198,50,62,178,94,152,189,69,51,142,189,203,124,116,61,252,167,166,61,214,154,229,61,206,12,139,58,68,150,178,61,115,171,35,190,223,40,217,61,6,31,132,188,196,249,230,189,124,64,123,60,56,127,8,57,169,89,104,59,186,83,0,190,86,209,41,190,120,79,45,62,67,86,22,62,6,58,172,188,50,51,58,189,12,64,152,189,151,35,167,61,240,206,28,62,83,158,3,190,90,116,2,189,165,108,230,189,252,78,36,190,28,136,34,190,70,246,229,59,164,100,191,188,155,76,27,62,153,110,85,189,10,169,121,189,135,20,209,60,190,14,35,62,83,160,244,189,154,43,25,62,224,21,181,58,42,141,214,60,50,207,29,62,59,218,5,62,31,100,86,189,73,182,212,189,182,28,179,60,76,141,44,62,62,162,178,61,116,246,202,189,236,161,39,190,62,137,212,61,19,200,51,62,20,247,218,189,190,85,238,189,98,202,52,190,127,186,179,189,39,131,21,62,235,16,226,189,53,100,203,61,179,198,39,190,242,124,203,188,188,69,33,62,29,234,219,61,176,145,151,61,86,17,51,190,140,251,229,60,40,166,105,189,232,50,27,189,83,125,151,60,115,59,19,190,180,66,217,61,23,213,174,189,123,219,69,189,194,170,240,189,55,116,15,189,123,198,214,60,192,139,87,61,210,157,197,60,6,138,20,62,58,204,35,62,246,120,223,189,13,61,239,188,34,230,161,189,233,32,100,189,22,4,46,190,162,57,247,61,96,231,26,190,37,146,168,189,158,192,130,189,111,28,46,190,3,8,171,61,138,91,3,62,166,149,8,61,2,48,5,190,152,63,24,189,125,142,240,61,21,238,6,62,203,9,196,189,58,145,106,189,111,224,33,190,239,255,15,62,217,247,255,61,122,148,100,61,194,230,202,61,248,176,179,61,22,26,21,61,170,61,184,61,20,141,230,189,134,217,22,190,188,199,75,59,1,139,167,61,212,111,235,60,74,107,71,189,59,134,78,190,107,184,129,59,121,138,53,62,4,247,84,61,162,241,210,61,50,5,246,61,218,252,98,189,13,178,141,189,88,175,15,190,216,191,76,188,234,90,247,189,127,35,105,189,155,130,252,61,44,98,213,61,119,192,175,61,148,80,221,189,193,250,81,189,225,217,217,189,15,175,186,61,90,182,23,62,136,211,151,61,147,231,6,190,127,150,135,61,151,199,88,189,40,134,166,61,137,128,214,186,185,167,87,189,40,161,231,61,94,109,223,60,150,119,208,61,25,5,101,189,231,208,55,188,227,239,84,187,218,177,102,188,194,47,39,61,142,136,51,62,112,187,152,61,102,77,140,189,247,128,3,189,157,62,246,189,86,152,163,187,229,173,116,189,170,173,39,61,84,130,54,188,89,17,101,189,190,25,7,189,78,245,86,59,193,160,5,190,183,46,159,188,142,67,166,188,250,128,64,62,44,196,21,190,214,196,188,189,213,106,141,61,165,192,13,190,114,69,42,190,106,122,250,60,66,226,115,189,118,52,12,190,31,190,60,62,150,116,236,61,12,66,129,61,186,45,65,189,124,78,7,62,231,115,236,189,45,215,3,62,125,249,65,190,105,169,155,61,213,221,165,61,93,61,41,190,190,24,230,189,218,157,22,190,229,22,56,190,66,45,238,189,127,52,19,190,192,154,3,190,5,220,3,188,166,234,16,190,84,218,138,61,64,71,255,60,198,67,190,61,229,100,175,61,174,42,211,189,79,211,164,189,19,123,158,189,3,192,192,189,160,205,147,60,92,131,203,188,71,224,4,189,109,96,33,190,92,111,14,189,113,91,13,190,65,107,148,189,144,218,183,189,68,93,33,188,243,229,147,188,204,195,9,190,44,175,23,62,208,64,183,61,58,174,190,61,97,241,65,188,159,217,41,62,88,191,248,188,54,81,136,61,92,130,43,62,195,235,115,189,97,97,49,62,213,211,74,189,8,121,6,189,255,76,245,187,50,178,3,62,1,167,123,189,4,202,26,62,222,147,33,190,236,231,1,189,42,141,62,62,91,92,209,188,82,94,55,190,218,193,223,189,94,164,227,61,152,4,104,61,70,22,214,61,195,115,235,189,252,105,238,61,121,138,89,189,86,255,83,189,37,4,107,61,227,142,40,61,79,26,70,62,242,181,103,189,152,215,145,61,198,160,36,62,179,35,40,190,211,162,206,61,157,36,33,62,108,100,90,61,87,129,17,190,233,47,215,188,92,119,16,62,22,120,215,189,237,173,138,61,55,7,94,190,86,234,90,189,23,104,155,61,240,7,74,190,253,46,179,189,63,107,239,59,4,140,135,189,198,72,206,189,35,156,160,61,237,193,7,190,191,209,240,189,195,221,90,61,233,226,78,190,194,96,222,61,189,22,174,189,202,106,53,190,11,121,112,60,198,37,21,62,54,236,195,61,63,55,171,189,182,225,52,189,148,20,28,190,10,191,220,61,8,207,56,62,176,148,118,189,251,130,26,61,127,235,165,61,150,123,46,190,197,211,125,60,27,211,222,189,170,225,105,61,63,16,250,60,66,102,39,190,60,186,162,61,28,65,208,61,224,42,18,62,26,23,10,190,234,236,201,61,1,44,20,189,211,16,13,190,97,253,216,61,220,80,135,61,110,104,75,190,161,82,207,59,57,6,13,62,250,224,27,190,3,27,12,190,44,110,228,185,207,239,43,190,248,161,3,190,239,103,216,189,205,96,145,187,232,14,36,62,27,190,114,188,77,158,27,190,35,206,240,189,131,160,240,60,155,65,144,187,249,209,167,189,240,110,20,62,121,243,31,61,91,18,46,190,37,199,26,62,146,120,236,189,129,211,167,188,50,179,175,60,218,20,65,61,100,94,31,62,25,236,179,60,126,224,223,61,215,117,102,61,105,171,115,189,156,237,48,190,137,132,143,189,174,46,168,61,82,205,255,188,5,48,18,62,1,76,55,190,215,202,52,189,128,235,45,189,42,13,182,61,8,69,173,188,179,211,185,189,20,232,158,61,217,29,160,61,75,30,23,190,4,40,34,62,104,245,239,61,219,60,31,190,125,18,171,189,238,234,62,61,110,54,68,190,144,193,29,62,128,138,93,190,112,75,152,61,237,106,140,61,63,159,17,190,120,138,107,61,231,138,245,189,126,255,105,189,144,46,211,61,198,12,195,61,233,251,140,189,203,21,104,61,30,14,195,59,85,24,151,61,188,154,240,189,17,134,149,61,232,82,80,61,207,63,241,188,222,112,86,61,83,216,209,61,4,64,15,62,105,81,45,188,30,54,81,190,244,212,62,190,155,162,252,189,43,237,134,61,221,167,31,62,176,173,230,189,145,152,211,189,150,205,105,189,207,253,135,61,235,217,184,61,127,130,111,61,70,251,224,61,131,215,39,61,108,103,2,61,25,142,0,188,38,95,230,59,112,61,129,61,245,64,9,62,28,47,224,61,206,81,153,189,58,80,56,60,146,173,15,62,202,49,121,61,249,32,204,61,53,215,133,61,243,2,206,189,254,247,213,61,85,147,0,189,247,138,121,189,128,140,20,62,218,128,40,190,98,102,208,189,248,51,212,189,202,244,154,61,18,20,207,61,114,49,6,61,38,234,182,61,204,173,23,62,24,234,176,61,171,11,54,190,216,53,135,61,205,6,3,189,8,53,47,189,65,177,141,61,186,56,82,189,61,144,194,61,138,191,196,60,135,63,181,61,98,120,210,61,172,247,212,61,171,71,12,60,229,240,65,61,145,166,32,61,241,224,46,189,201,241,157,61,235,241,22,62,166,50,26,189,171,36,3,189,230,217,53,61,119,112,76,62,45,230,207,189,145,78,134,61,40,149,218,61,148,181,18,190,225,140,192,61,5,53,59,62,46,117,209,60,138,190,248,189,36,38,132,189,147,175,142,61,77,191,204,61,175,255,73,61,132,11,168,61,136,244,47,190,198,48,168,189,136,226,19,190,248,115,215,61,199,8,90,189,120,171,133,187,167,114,228,61,66,20,222,189,90,101,227,189,53,100,37,190,32,35,240,61,121,136,136,60,132,24,138,61,187,170,38,189,146,56,137,60,116,144,170,61,218,203,175,189,225,32,8,190,13,8,111,189,167,53,199,189,253,169,59,190,68,233,159,61,220,108,137,60,198,73,253,61,241,71,231,189,218,137,180,60,31,3,165,189,154,40,194,189,190,44,108,189,125,202,204,61,151,142,239,61,109,253,249,61,229,177,78,189,113,54,60,61,174,222,190,59,244,255,105,189,227,211,129,189,54,53,149,59,155,41,96,190,113,246,172,61,254,174,148,61,22,138,21,190,133,123,29,62,152,15,80,62,96,74,224,189,146,36,249,189,5,249,162,61,71,110,242,59,241,162,7,61,175,140,203,60,178,67,72,190,17,219,57,190,220,29,6,190,8,226,151,61,55,16,193,61,142,22,164,60,185,167,98,189,121,76,47,62,162,12,244,61,78,72,101,190,37,92,105,61,28,104,134,61,185,77,142,189,253,27,5,190,66,242,242,189,57,243,159,189,35,135,40,190,223,245,233,189,79,54,63,190,68,156,68,58,11,255,124,61,224,150,0,62,87,177,111,189,171,198,58,189,7,145,111,190,122,232,209,187,14,65,199,189,159,222,143,188,230,77,248,61,33,6,205,60,11,161,0,62,1,123,56,61,93,177,228,61,233,138,101,190,210,44,9,190,10,72,10,190,135,106,107,190,234,123,208,189,101,194,2,190,49,115,107,190,165,124,150,61,28,36,179,189,57,1,69,190,246,207,21,190,166,71,213,188,181,105,149,61,25,193,138,189,30,128,32,62,37,103,79,190,123,221,245,61,211,255,148,61,180,103,241,186,64,98,8,61,58,4,48,62,250,82,235,61,228,250,133,61,114,220,22,61,203,200,33,189,26,123,217,187,80,236,26,190,79,111,194,61,33,60,124,61,86,117,255,189,246,21,203,61,8,250,59,189,121,190,1,190,10,8,73,62,107,85,84,187,64,31,54,62,16,68,162,61,246,191,79,60,130,81,180,188,251,185,141,61,220,199,180,59,108,222,76,61,250,16,14,190,171,164,10,61,48,145,36,62,212,55,132,189,206,43,25,190,169,0,122,189,49,93,101,189,221,132,169,60,14,23,70,62,58,144,161,61,16,247,222,189,173,124,231,188,69,95,58,62,37,223,219,61,168,98,204,189,64,3,207,60,66,128,250,187,112,172,58,61,159,70,246,189,148,249,164,187,71,241,209,61,176,60,8,62,186,25,41,62,83,161,186,58,184,192,53,61,206,29,217,59,36,186,10,62,175,232,156,189,123,59,193,189,234,152,135,189,61,182,113,61,48,43,153,189,128,226,173,59,195,160,62,61,78,218,58,62,24,130,66,60,68,66,217,189,197,6,27,190,211,70,72,62,67,29,67,61,51,72,7,190,117,205,55,189,243,163,100,61,224,231,23,61,73,159,172,61,36,122,166,187,65,70,122,189,20,107,243,61,148,224,59,189,22,250,154,61,111,246,63,60,73,123,136,189,196,15,4,190,109,61,54,189,123,63,209,61,130,58,16,190,55,95,13,190,62,35,141,189,77,168,51,189,140,12,146,189,11,89,168,189,69,9,184,61,229,48,195,189,162,88,29,62,190,185,87,60,156,160,46,62,251,49,52,189,207,174,237,61,91,157,164,189,118,109,159,61,20,63,37,61,250,141,203,61,55,66,252,61,123,220,254,189,157,75,217,189,43,164,185,189,194,25,3,190,14,236,3,189,154,117,2,189,162,202,8,62,252,186,65,62,19,179,215,60,118,15,138,188,75,247,13,62,162,146,18,62,169,12,127,189,69,63,49,61,30,255,184,188,35,28,233,189,110,60,53,61,26,99,63,62,95,225,5,190,198,17,30,62,149,252,16,190,46,125,39,60,29,111,217,189,93,69,56,60,12,213,39,189,191,157,198,189,188,168,231,189,177,249,18,62,170,200,202,61,62,143,175,61,46,125,79,61,214,236,18,62,131,43,184,189,48,63,38,62,131,33,231,188,81,120,151,189,218,204,3,62,96,254,62,62,213,39,253,59,6,17,127,61,210,123,35,61,75,209,207,61,160,183,66,189,152,213,165,189,229,34,21,188,54,208,219,189,100,76,25,62,137,63,197,61,176,212,248,189,179,141,238,61,84,148,133,188,86,7,56,189,203,138,31,62,209,58,20,190,55,62,154,61,154,155,183,189,233,89,217,189,239,193,145,189,78,4,178,189,164,127,16,190,177,217,202,189,151,171,91,61,44,209,17,189,42,41,173,60,190,96,222,188,73,153,49,62,151,218,225,189,187,29,56,189,30,153,183,61,84,217,128,60,116,112,63,189,92,173,46,190,91,214,27,62,45,189,231,188,114,249,114,61,178,94,213,60,133,187,199,61,105,158,29,190,115,67,196,188,66,231,197,188,99,227,139,189,117,192,253,60,23,250,23,62,244,195,153,189,103,156,12,62,105,233,218,189,192,231,168,189,1,169,130,61,6,67,71,190,210,246,59,61,70,218,35,189,136,86,255,61,183,243,229,61,79,33,150,61,112,17,14,189,231,31,104,188,18,246,46,190,140,46,227,189,206,152,135,61,132,158,66,190,37,66,3,190,75,109,41,190,111,127,250,189,140,55,2,190,55,91,6,62,52,73,131,61,207,231,214,188,122,67,135,59,251,49,165,189,126,9,206,189,16,64,250,61,252,157,208,61,122,33,238,61,49,66,100,189,219,210,209,61,217,43,65,189,126,92,37,62,206,155,91,189,173,109,250,60,84,13,37,189,222,122,11,62,231,230,64,190,160,56,44,61,39,185,92,189,32,66,225,61,144,132,15,190,187,193,151,58,45,197,16,62,250,98,199,60,125,115,39,61,202,114,104,189,90,179,76,189,234,103,16,190,205,25,10,60,236,81,50,62,17,249,39,190,137,238,18,62,169,80,190,61,205,189,234,61,76,99,27,190,135,129,97,61,170,116,22,190,29,51,239,61,4,120,217,189,108,138,90,61,83,122,32,60,127,170,35,62,17,218,68,189,105,96,220,187,243,31,2,62,38,248,224,61,183,95,27,62,205,91,231,189,129,198,109,189,122,129,32,62,131,81,225,61,128,175,79,189,128,188,48,190,189,68,21,62,124,155,224,61,25,232,111,189,68,203,185,61,105,140,19,190,208,7,27,190,56,115,38,190,127,9,159,59,208,121,85,188,122,155,234,61,16,181,22,61,146,239,20,190,74,212,12,62,173,209,229,189,179,92,187,61,131,48,3,189,24,177,35,190,177,34,17,60,235,167,166,61,212,52,79,189,136,239,237,61,141,202,108,61,74,113,155,189,49,185,69,188,71,230,79,61,132,221,165,188,165,21,254,61,125,232,1,62,114,24,43,190,252,199,35,57,72,224,95,61,29,6,110,61,250,8,23,62,103,138,56,190,246,144,211,189,119,172,8,190,25,157,253,189,119,65,189,189,113,216,4,190,130,34,255,61,165,90,4,62,56,45,15,62,75,5,206,60,135,37,0,61,175,255,128,189,114,162,13,61,95,131,19,61,171,31,75,190,3,147,115,61,158,92,34,190,157,235,175,60,65,89,98,189,169,177,57,57,181,132,80,62,51,114,35,188,187,119,206,60,123,242,242,61,23,75,74,62,204,166,211,61,242,16,52,61,186,254,210,61,216,53,33,62,47,56,40,62,223,24,49,61,231,218,101,59,93,172,22,62,42,155,163,61,215,225,111,187,153,72,12,190,47,17,73,62,152,154,203,61,103,147,79,189,38,139,142,61,74,234,77,188,121,19,46,189,23,201,26,188,83,83,214,61,222,23,41,62,250,95,82,62,158,75,160,188,115,214,37,62,90,103,32,62,122,192,8,62,49,119,12,190,232,72,16,61,244,44,1,189,82,53,38,61,126,66,36,61,52,159,37,62,242,223,149,61,86,208,12,187,163,117,159,61,152,20,18,190,109,103,123,61,72,225,182,61,183,155,249,189,126,204,77,189,27,84,50,62,161,85,19,190,5,58,139,189,212,211,97,61,9,15,13,62,184,69,131,61,217,159,17,190,180,207,251,60,83,64,41,61,171,111,153,60,29,55,217,189,194,58,142,61,212,181,166,189,27,63,130,61,185,101,40,62,169,192,191,61,255,175,51,62,160,159,244,187,220,219,250,186,45,87,24,189,35,71,25,62,1,225,163,61,117,49,237,60,20,178,28,62,197,67,35,61,248,201,26,61,4,179,139,189,141,113,1,190,99,189,250,189,166,228,144,61,98,64,72,62,201,198,77,61,88,187,213,60,122,93,66,189,123,91,6,190,186,172,137,189,48,72,129,60,50,166,217,60,37,47,213,60,17,140,16,62,102,241,85,189,30,236,20,190,241,129,16,61,126,41,159,61,128,32,59,189,138,251,109,189,44,180,47,62,5,231,64,62,190,237,236,189,95,140,64,62,62,10,62,62,100,231,25,190,78,238,198,61,36,81,51,62,203,172,12,190,62,114,162,61,49,67,231,189,166,194,46,189,136,179,43,62,72,77,63,62,233,94,9,62,213,244,38,61,119,202,28,62,101,242,6,62,176,150,121,60,79,65,38,62,206,228,241,189,104,220,15,61,61,11,6,62,225,122,6,190,35,53,192,61,64,218,242,187,227,125,19,62,13,148,18,62,158,105,214,189,89,86,77,62,1,136,145,61,50,153,62,62,83,41,255,189,44,91,64,62,9,98,6,189,156,192,72,62,97,133,7,62,53,51,242,189,56,202,37,62,249,13,208,61,232,137,140,189,151,53,19,62,44,196,75,60,192,73,231,61,2,144,170,61,30,162,178,189,131,84,9,190,28,71,153,61,88,89,75,187,126,118,166,60,201,100,231,189,107,122,25,190,113,116,33,190,44,25,169,61,224,87,62,189,173,65,193,189,197,105,39,62,41,132,224,61,197,30,45,62,230,50,29,62,168,236,167,189,22,233,8,62,64,149,51,190,210,108,141,188,74,246,249,61,93,75,231,188,187,62,61,189,33,152,163,61,171,157,20,62,175,196,106,61,189,77,186,188,211,111,189,61,203,55,160,60,70,77,81,189,178,99,0,62,88,6,44,190,154,132,135,61,99,218,148,189,82,120,194,188,23,64,141,60,224,212,8,189,202,231,30,62,148,142,223,189,67,146,133,189,17,71,156,189,173,189,245,189,30,15,175,189,207,51,67,188,214,38,148,189,112,247,132,61,247,233,33,190,104,28,226,61,243,113,53,190,131,232,39,190,52,168,248,189,48,185,149,61,74,187,31,190,29,184,234,61,137,22,148,60,18,64,14,190,69,247,36,62,18,202,64,60,145,212,221,61,21,195,32,61,57,189,145,188,191,14,153,189,45,202,1,62,141,130,220,60,169,228,56,189,221,179,189,61,152,22,223,189,217,100,23,189,126,153,130,61,186,146,132,61,254,150,25,190,83,53,152,189,83,234,52,60,5,227,220,189,3,207,1,61,56,209,33,190,231,51,30,62,34,135,3,62,169,83,18,61,83,84,105,61,226,82,180,189,129,237,104,61,116,233,239,188,66,132,231,188,47,155,58,61,108,133,26,190,58,208,136,189,224,176,212,61,90,34,30,62,125,66,27,62,75,108,93,61,90,240,133,61,91,212,116,189,104,156,27,190,30,126,22,190,132,116,234,189,184,128,63,190,29,235,20,190,87,180,16,62,164,83,150,189,187,227,243,189,84,255,133,189,86,1,12,190,227,151,49,190,194,69,222,61,140,122,116,189,12,242,200,188,56,239,218,189,2,138,236,189,220,137,47,189,117,33,14,62,121,147,16,62,21,25,58,61,123,128,105,61,225,62,231,60,74,57,189,189,48,192,22,62,211,251,201,60,137,172,46,190,147,35,43,62,240,129,62,190,204,30,200,60,71,134,128,60,47,182,179,60,130,231,131,60,194,192,126,61,46,147,232,60,81,116,185,61,72,127,242,61,65,78,199,189,254,247,222,189,213,185,206,61,254,37,3,62,37,98,139,188,46,209,245,189,111,233,42,188,6,60,157,189,97,35,57,62,194,11,86,61,39,147,217,61,147,183,126,61,178,85,4,190,141,186,38,190,114,176,37,61,162,31,129,61,55,210,193,189,146,181,216,60,32,223,19,190,34,85,72,190,62,234,30,62,199,187,202,189,132,136,196,189,45,72,62,187,152,154,247,189,109,203,233,189,146,163,40,189,162,123,49,59,6,53,253,189,224,187,138,60,195,60,48,190,215,163,163,61,206,178,31,190,128,41,32,61,42,26,85,60,54,91,147,61,23,156,141,61,117,253,88,60,123,57,9,190,42,172,248,61,176,88,204,187,7,67,30,62,229,171,138,61,109,34,96,61,207,146,59,62,76,238,99,61,190,177,179,60,9,153,215,189,94,249,174,187,193,146,238,61,82,10,239,187,226,225,82,189,173,4,180,61,188,211,160,59,121,82,62,190,87,238,151,189,200,101,99,188,74,38,19,190,95,74,173,60,204,214,16,60,134,75,51,190,153,206,137,189,252,162,211,189,48,105,252,189,200,228,4,62,220,115,26,190,21,242,159,61,72,59,69,190,118,146,171,61,99,141,64,189,105,144,249,188,212,253,190,187,11,158,39,190,179,134,168,189,19,60,104,61,175,118,158,189,74,204,34,189,203,185,176,61,73,20,209,188,172,40,149,188,133,99,12,190,233,204,103,61,132,64,37,61,201,244,113,189,174,42,44,190,117,95,75,61,238,133,11,190,6,226,227,61,55,196,79,61,196,181,183,60,28,246,243,189,91,81,209,189,24,217,11,61,86,27,63,190,82,19,65,190,62,32,22,190,156,159,7,62,110,229,35,62,37,248,138,61,54,24,49,190,254,126,191,189,247,90,17,61,58,185,220,189,21,79,3,190,14,40,144,188,252,38,113,61,200,110,144,60,213,20,232,189,43,161,45,189,156,25,6,62,251,18,158,189,156,132,232,188,116,192,105,189,100,237,4,62,210,55,2,190,162,162,15,62,132,71,43,61,45,89,5,62,41,243,253,61,113,135,9,62,181,117,114,61,204,205,190,61,73,49,88,189,145,115,35,62,109,14,17,62,149,67,28,62,245,121,40,190,192,242,43,59,91,61,41,190,253,134,245,189,110,190,13,190,160,129,139,61,70,41,158,61,242,26,118,61,111,13,164,189,54,4,229,189,88,22,75,189,54,176,211,189,184,237,178,61,6,2,45,190,213,149,222,61,113,36,18,188,55,32,48,61,97,137,160,61,128,13,127,189,103,105,200,189,66,162,89,61,143,108,120,61,147,239,30,190,70,42,50,189,177,67,216,188,55,101,198,60,110,252,197,189,242,157,58,190,39,210,142,61,226,140,216,59,114,64,96,189,182,129,218,189,215,11,158,61,192,239,17,61,9,185,25,61,148,208,145,61,50,121,138,60,218,208,174,189,201,123,221,189,59,46,72,190,109,250,1,190,121,98,42,62,48,112,149,189,234,249,25,187,29,233,48,62,183,6,212,61,74,182,26,190,110,195,133,189,168,36,206,189,242,250,189,61,155,164,23,62,40,149,44,61,56,85,143,188,93,67,61,62,218,93,220,189,237,226,254,189,46,120,247,61,172,111,244,189,124,21,143,61,226,191,12,190,39,10,8,188,134,49,169,189,103,38,5,189,119,108,6,62,90,133,113,186,84,133,186,189,196,86,131,60,193,228,130,189,24,169,138,61,59,228,199,61,35,90,44,62,146,37,224,189,26,238,207,187,95,169,75,62,21,71,11,190,105,188,67,189,162,36,77,60,123,9,160,189,147,132,133,61,235,72,119,189,229,25,154,189,136,97,188,189,38,109,15,62,33,239,44,61,247,186,165,60,254,100,240,189,32,179,12,61,146,222,37,62,66,223,84,189,46,61,53,61,177,164,51,190,62,181,51,61,57,2,0,61,212,204,147,61,150,81,88,62,18,232,208,61,9,3,67,61,153,219,102,62,6,224,97,189,65,235,21,190,14,136,34,62,119,12,242,189,125,162,190,61,110,122,16,188,107,66,15,190,39,225,20,62,86,3,201,189,117,139,144,189,71,145,62,189,152,170,224,189,166,209,180,58,118,135,62,190,132,31,248,61,74,174,172,189,217,154,215,189,253,142,89,62,66,216,66,190,81,82,34,62,59,17,31,61,232,7,165,61,102,229,8,189,163,3,235,61,72,23,212,60,114,161,182,189,26,253,184,61,73,207,53,61,71,108,78,189,158,48,93,189,127,234,22,61,29,37,38,190,211,41,210,59,43,246,17,190,207,7,168,61,71,184,19,189,88,66,239,189,39,28,140,189,196,123,174,61,150,234,157,61,56,114,26,62,74,171,184,189,174,158,46,190,41,73,23,190,113,28,152,189,237,14,141,189,137,238,228,61,99,25,57,189,111,60,97,190,240,109,59,190,30,149,48,60,78,177,140,189,255,235,77,59,143,107,0,190,39,61,111,190,122,233,48,190,134,190,67,62,73,223,227,189,238,213,213,58,182,195,67,61,75,23,101,190,151,6,203,61,238,254,101,62,72,178,254,189,129,201,8,189,0,67,150,186,100,240,14,190,144,22,98,61,35,65,18,189,205,169,8,188,43,64,136,189,32,74,62,62,31,126,55,190,38,25,42,190,202,254,82,189,13,202,15,188,174,247,50,190,188,133,83,62,54,193,52,60,177,14,106,61,13,123,45,62,75,86,76,190,171,145,50,62,162,75,229,61,199,187,235,61,3,223,238,61,134,150,35,62,221,76,255,61,111,250,129,189,100,20,181,61,88,122,98,190,201,76,236,189,55,207,18,60,87,229,133,58,102,173,177,61,71,9,252,61,59,254,1,190,40,189,189,61,204,95,147,61,165,55,241,188,205,128,13,62,88,216,85,61,156,62,16,190,150,122,216,58,67,161,209,189,131,44,109,59,187,9,65,190,109,190,35,61,94,10,139,189,211,149,156,189,155,88,209,189,178,32,164,188,13,45,136,188,128,74,94,189,137,227,24,189,215,155,203,60,70,66,213,61,255,99,24,190,238,13,228,61,99,12,231,188,102,22,215,189,101,46,12,190,123,10,199,189,206,226,14,190,141,81,230,61,22,139,0,62,212,225,52,189,64,47,179,61,93,16,253,60,241,57,241,188,71,16,187,61,97,222,12,190,203,25,189,189,106,123,11,62,166,5,195,188,143,204,1,190,135,194,24,62,193,96,173,189,88,140,1,190,244,78,88,60,109,129,17,190,201,89,221,189,107,167,76,189,123,184,125,189,180,242,107,60,19,172,33,190,77,78,201,61,204,93,224,61,4,111,191,61,241,3,118,189,64,189,175,189,7,149,1,190,96,221,255,61,34,8,4,62,139,239,55,61,168,143,226,188,65,159,55,59,86,109,27,190,14,86,83,188,191,132,204,61,71,200,137,189,254,169,85,189,222,19,198,61,128,93,194,61,104,14,158,61,154,242,47,61,47,22,55,59,129,77,120,188,98,128,149,188,82,240,203,188,108,107,132,189,201,1,46,190,109,163,7,189,220,107,41,190,189,199,237,61,122,193,175,61,22,35,40,190,232,248,31,190,55,28,212,189,125,11,64,189,130,145,156,61,181,248,3,190,187,48,27,62,247,140,48,190,42,27,35,190,60,95,189,189,86,99,220,61,174,169,150,189,31,67,251,185,150,32,105,189,148,169,27,190,76,8,3,62,242,195,72,187,165,211,251,61,233,244,162,189,81,26,208,189,3,233,166,188,70,151,17,190,220,193,127,60,14,81,3,62,212,154,160,189,154,8,56,62,188,9,245,189,54,26,1,190,164,171,106,61,28,195,142,189,193,103,227,61,122,133,71,189,100,56,163,189,113,97,237,187,54,208,50,60,167,82,100,189,204,161,143,60,129,73,33,190,65,5,55,62,163,204,21,61,174,89,29,62,142,199,191,61,246,192,58,189,224,69,20,62,32,235,226,188,115,82,170,61,63,253,162,188,67,46,4,62,34,227,255,187,143,207,206,59,78,0,248,61,29,230,12,62,153,241,157,60,127,79,192,189,118,179,2,190,242,74,21,189,244,233,1,62,95,114,176,61,136,88,177,189,59,0,156,61,55,4,101,189,125,153,146,188,233,170,154,61,224,140,155,189,111,68,5,189,201,31,50,189,231,98,0,189,42,175,52,62,210,202,21,62,226,156,207,189,44,254,34,62,65,197,83,187,178,90,216,189,234,43,12,59,250,119,207,61,46,198,34,62,126,155,88,189,129,169,76,60,254,157,235,189,155,91,164,61,173,199,1,62,248,102,209,61,147,222,228,61,89,225,82,188,202,234,0,61,219,101,76,189,219,80,190,189,212,215,1,190,154,55,229,61,254,135,207,60,124,167,24,190,62,199,104,60,36,142,141,60,98,102,225,61,93,168,215,189,41,17,109,189,8,188,197,189,128,226,48,60,19,24,136,61,215,20,199,189,132,131,190,189,137,163,184,61,146,85,233,61,155,200,222,61,252,140,60,187,205,14,177,60,1,50,7,190,111,168,120,61,209,149,2,190,98,253,49,61,238,39,58,190,49,2,3,190,2,226,82,189,76,58,2,61,189,137,123,189,96,197,115,61,48,226,24,190,89,28,156,189,31,186,25,190,147,7,17,61,140,44,40,190,206,101,21,62,122,14,79,189,40,152,141,61,75,175,30,189,50,254,230,61,167,59,47,61,34,144,12,189,114,42,55,189,190,123,58,189,237,57,194,61,116,200,141,189,134,60,79,190,43,52,187,60,131,160,11,60,104,133,170,61,18,43,79,62,88,239,168,189,40,71,70,190,186,225,220,189,221,216,12,61,101,161,186,61,138,72,104,189,100,25,11,190,184,98,27,190,65,253,32,62,83,221,226,60,236,44,30,190,229,255,24,190,67,206,237,61,62,70,15,190,62,159,215,59,240,96,28,190,48,9,29,60,64,103,35,189,221,209,184,61,228,165,133,189,135,60,240,189,7,138,139,61,78,241,62,61,196,26,255,61,42,238,9,62,29,178,12,62,118,154,210,189,230,236,203,189,244,67,109,189,201,137,71,189,18,4,209,61,135,174,239,189,88,22,15,62,242,174,206,189,108,46,133,189,240,101,177,189,52,126,81,61,231,20,7,60,11,87,37,62,83,211,16,189,227,243,25,62,254,63,152,60,217,105,16,190,0,97,67,190,1,74,67,62,89,93,69,189,187,130,91,189,155,83,49,62,68,152,194,189,246,131,3,190,102,174,15,190,204,143,1,190,56,57,76,190,190,120,57,62,71,37,83,190,144,26,132,189,144,62,196,189,47,111,99,61,18,49,76,190,34,143,239,61,225,252,208,189,234,61,247,189,157,82,8,62,57,29,2,190,13,60,91,186,135,181,51,62,56,134,39,189,77,125,132,61,209,54,173,60,32,109,143,189,150,26,11,190,138,12,82,62,201,248,220,61,44,48,137,61,244,113,6,190,225,87,168,189,196,37,13,62,193,10,113,60,222,108,41,190,104,15,62,190,98,150,47,61,98,131,174,61,6,216,74,190,211,56,221,58,190,57,188,189,127,32,2,190,216,223,171,189,191,57,17,58,188,211,66,190,249,124,58,62,99,241,170,189,135,114,161,61,4,17,67,62,7,183,92,188,250,21,255,188,242,88,159,188,114,60,29,190,202,7,148,61,115,1,206,189,70,254,13,62,230,238,52,61,143,176,230,61,229,226,248,61,220,225,223,189,100,13,14,190,79,179,60,60,252,169,52,188,218,66,35,61,190,13,12,190,210,88,53,190,150,0,170,61,79,68,168,61,60,245,228,61,171,115,229,189,17,181,7,62,237,97,165,61,134,29,94,61,184,91,53,189,8,61,131,61,219,29,245,188,203,79,54,190,125,128,24,62,89,149,236,189,234,10,151,189,159,247,73,188,33,109,154,189,139,95,219,60,223,85,235,189,217,6,139,189,44,195,225,61,116,47,171,189,24,165,2,190,53,124,239,189,253,51,190,188,234,206,219,189,87,92,36,190,89,150,174,188,24,83,162,189,121,116,235,61,153,25,205,189,147,51,34,190,183,186,28,58,51,227,37,62,17,143,15,190,208,136,44,190,172,169,172,61,244,240,95,189,158,159,165,60,204,169,180,187,5,26,247,61,73,135,163,189,226,121,50,61,48,21,211,189,103,80,168,60,253,190,2,189,132,61,205,189,173,143,69,189,198,49,167,59,36,202,90,61,212,196,185,189,73,190,130,58,217,37,0,190,225,230,34,62,111,1,199,61,115,214,141,188,61,141,253,60,198,121,218,189,94,4,26,190,75,53,198,61,233,39,65,190,82,57,85,189,27,11,65,189,238,125,121,189,0,252,128,61,106,87,208,189,145,1,143,61,105,181,46,62,41,80,11,190,158,177,229,189,252,245,57,62,178,198,2,62,216,94,88,189,170,133,219,189,11,194,40,190,25,112,211,60,204,161,129,61,129,218,224,189,117,38,187,60,26,161,12,190,142,243,222,189,21,15,67,189,221,78,95,61,219,116,8,190,120,79,174,189,232,6,195,61,2,56,154,61,95,110,25,62,107,63,37,62,16,89,58,189,134,75,19,61,250,19,253,189,58,192,254,60,37,190,68,190,186,215,65,61,246,146,52,62,65,97,4,190,148,221,75,62,4,3,16,62,218,126,254,189,54,13,35,190,148,47,190,189,211,99,16,60,96,237,228,189,173,203,246,61,178,39,2,62,206,162,27,189,164,142,124,61,201,31,13,190,29,180,71,189,230,49,46,62,187,228,249,60,45,234,20,59,61,235,41,62,232,53,250,61,218,12,142,61,117,116,189,188,221,0,221,188,213,218,34,62,157,44,54,62,225,114,30,190,151,172,186,61,55,251,211,61,47,247,229,189,239,23,76,62,131,246,251,189,249,58,22,61,126,20,154,61,63,43,61,189,165,180,143,188,156,130,41,62,55,75,29,190,95,154,196,59,30,21,181,61,60,167,152,189,136,253,30,62,92,142,33,190,88,83,2,189,14,45,246,189,2,16,108,61,196,142,66,62,55,86,229,61,76,64,8,190,24,0,22,62,49,177,200,61,222,126,251,189,40,95,220,189,217,246,213,60,113,195,70,189,72,149,184,189,105,175,187,61,11,44,74,61,174,125,182,188,111,219,156,189,221,178,47,62,23,57,10,62,115,62,15,62,102,71,223,61,168,20,136,189,231,113,187,61,150,35,75,62,241,178,216,189,20,240,27,61,195,84,239,61,234,48,171,188,254,198,183,189,200,28,5,62,17,227,35,62,56,189,32,62,29,157,34,62,169,58,143,61,16,16,110,61,250,238,19,62,71,114,87,62,11,48,164,61,9,76,244,188,58,163,205,188,6,6,7,62,32,196,24,190,185,239,44,61,58,18,43,60,232,62,114,187,86,26,44,189,116,225,47,62,105,202,21,62,46,239,74,62,3,40,18,61,202,216,68,62,222,246,79,62,211,107,8,190,121,151,20,62,53,189,144,60,203,22,158,60,52,46,96,188,25,99,46,62,99,240,96,189,90,243,228,188,240,91,230,61,164,99,163,61,207,215,240,189,182,90,17,61,13,76,211,61,204,48,51,62,156,123,187,60,110,230,69,61,215,157,74,61,32,6,158,60,94,50,189,188,212,132,12,62,20,186,47,62,39,80,77,62,67,154,9,62,42,210,83,60,207,67,131,189,200,13,0,190,168,254,18,190,254,55,222,60,51,202,167,186,38,152,23,190,222,0,21,189,222,166,210,61,158,119,158,189,233,124,79,61,133,253,236,60,248,218,187,189,200,85,214,60,96,211,79,62,124,193,46,62,162,204,86,189,38,94,248,61,189,116,54,62,37,254,24,62,55,233,221,61,245,18,129,60,47,108,243,187,100,98,44,62,15,6,40,62,20,227,217,60,227,211,134,61,152,179,63,61,19,106,16,61,223,87,14,189,127,80,136,61,187,75,183,61,9,189,1,190,154,36,12,62,122,29,109,189,45,165,51,62,99,93,212,189,40,210,244,60,95,141,15,190,146,150,0,190,215,149,201,189,29,220,245,61,41,173,63,62,109,78,128,189,241,82,251,189,61,70,19,189,115,118,151,189,17,74,187,189,27,127,1,61,228,207,226,188,213,117,153,61,41,133,196,188,245,96,42,62,59,81,3,188,168,2,78,60,175,62,217,189,235,107,55,60,148,105,144,189,250,247,14,62,32,218,235,189,207,32,13,189,53,90,50,61,181,64,21,190,101,165,69,189,222,240,15,189,61,5,12,62,38,120,244,189,99,226,153,60,139,154,139,60,191,134,160,61,24,53,134,189,129,213,119,189,111,188,84,62,79,114,194,189,218,15,170,189,117,25,9,62,56,213,164,60,163,2,153,61,98,252,133,61,225,118,182,188,150,193,79,61,98,111,83,61,128,212,233,188,100,211,177,188,52,240,239,61,58,136,13,190,229,3,253,188,172,157,181,189,120,99,163,189,68,43,45,61,213,119,8,62,202,66,184,189,79,253,233,189,178,116,35,62,241,184,217,189,205,127,183,61,202,25,14,62,187,113,20,190,66,208,21,189,70,196,201,189,112,219,35,61,162,82,36,62,228,23,97,189,160,159,145,61,67,202,234,188,39,104,240,60,45,70,4,61,20,33,97,61,165,185,69,62,216,220,10,62,15,233,136,189,97,204,217,189,126,185,1,190,186,242,163,61,108,85,254,57,170,3,117,189,221,107,0,190,56,178,253,60,164,93,147,61,22,83,21,190,128,241,75,61,62,183,154,61,191,23,140,61,144,183,204,189,224,223,72,189,178,222,81,62,58,53,200,185,216,248,205,189,7,120,234,189,19,159,163,189,155,95,82,62,9,73,23,190,193,163,168,189,12,163,29,62,65,158,198,59,58,26,4,62,134,48,33,62,199,214,135,61,244,67,135,189,112,149,127,187,190,247,42,62,102,203,135,189,67,60,214,189,4,237,181,189,108,183,119,61,60,151,110,189,176,43,38,61,207,64,4,62,133,212,171,60,178,75,67,62,157,36,9,190,170,164,17,62,137,234,207,60,230,247,200,189,98,223,168,61,60,61,254,61,36,157,67,62,9,103,247,61,243,187,215,189,60,171,103,62,134,60,51,189,248,34,9,190,75,140,207,61,177,70,160,61,187,208,195,189,166,195,16,190,205,215,45,61,240,4,239,187,1,217,97,61,206,189,153,189,21,56,245,61,182,14,94,62,212,164,47,62,19,152,38,62,215,182,167,61,138,81,255,187,128,38,233,189,254,72,18,62,49,127,27,62,85,182,230,189,35,222,11,189,214,87,61,62,119,153,152,189,113,201,158,61,165,9,8,190,243,163,83,62,85,191,135,61,36,82,220,61,233,238,102,189,220,114,199,189,55,137,255,59,14,89,111,61,170,190,12,190,189,29,7,189,9,168,246,61,186,134,8,61,147,31,237,189,15,21,188,61,70,52,226,61,171,3,147,189,222,73,174,188,159,191,43,61,1,135,78,61,3,130,162,189,20,109,159,187,171,210,137,189,129,221,174,188,13,73,98,62,63,20,227,61,249,118,71,189,101,53,178,189,65,126,150,189,252,139,153,61,60,111,56,62,130,90,110,189,211,18,169,61,228,152,34,61,82,108,12,62,127,150,22,62,19,180,74,61,40,22,22,62,205,31,15,61,54,20,86,62,168,19,6,61,158,27,217,61,236,216,187,189,0,109,139,61,216,37,203,61,218,86,18,189,55,19,33,62,52,245,218,61,129,131,45,189,26,18,151,61,219,169,229,61,8,174,246,189,100,3,207,188,32,221,44,62,117,13,49,61,162,34,248,189,208,55,140,61,116,253,204,187,184,179,47,189,59,133,39,61,54,216,21,190,36,122,222,189,249,241,135,61,254,107,127,189,38,106,211,189,161,86,123,189,13,99,13,190,87,166,5,189,246,70,250,189,67,72,22,61,238,186,195,60,120,32,110,188,76,81,155,189,103,46,23,189,92,17,201,61,135,200,252,61,237,81,155,61,165,234,4,62,24,48,6,62,213,59,5,190,213,72,15,61,33,45,6,62,19,81,65,190,134,49,0,62,194,188,61,190,231,129,194,189,53,183,20,62,186,252,205,61,135,33,48,190,2,206,159,189,184,17,135,61,59,33,133,189,20,103,99,61,105,223,174,61,205,173,66,190,163,173,50,190,75,247,23,61,173,231,5,188,230,241,6,61,81,87,250,189,233,146,63,189,81,93,253,61,62,229,81,188,163,248,183,61,134,30,188,189,18,3,14,62,232,111,69,189,240,3,15,62,235,201,171,189,151,1,152,189,183,25,64,62,66,176,237,188,128,228,213,58,242,112,224,61,183,82,34,190,5,145,222,61,1,198,51,62,196,194,24,61,184,178,157,189,235,156,198,61,37,47,160,61,162,231,200,60,205,12,13,190,225,163,21,190,35,214,62,189,39,54,209,61,250,119,187,189,96,247,130,61,182,40,23,190,89,128,34,189,199,119,153,189,52,1,61,189,83,90,250,189,97,184,22,61,233,99,115,189,109,21,121,189,218,243,159,189,54,173,31,61,193,254,60,190,222,97,161,187,128,140,252,61,53,152,234,188,85,106,211,189,201,222,59,62,218,100,244,61,177,171,16,62,198,250,51,61,162,132,117,61,217,214,128,61,135,142,15,62,249,241,155,189,52,40,142,61,103,183,197,61,224,74,216,189,134,129,12,62,188,121,147,189,200,89,11,62,7,30,235,189,208,14,69,189,153,205,24,190,231,80,141,61,145,149,128,59,103,151,131,61,57,40,220,61,57,72,112,189,234,240,55,190,4,91,109,60,238,219,34,62,172,173,37,188,33,108,195,189,229,211,31,190,178,242,100,188,222,213,11,188,103,221,187,60,204,192,218,189,237,204,219,61,28,73,238,61,91,207,42,61,194,124,157,60,219,73,0,189,125,106,57,61,34,121,91,59,208,176,236,61,183,111,33,62,104,229,212,188,157,194,40,190,226,123,175,188,133,209,138,61,94,29,25,61,229,18,53,189,35,107,63,190,214,57,199,61,106,218,141,61,102,69,0,190,77,221,74,62,148,174,216,189,36,159,211,189,18,245,77,62,137,12,24,60,174,249,71,61,5,157,97,61,246,222,86,62,18,216,66,62,191,145,31,189,140,101,146,60,138,30,231,60,206,108,65,62,168,150,131,61,147,131,50,62,213,222,48,62,65,185,185,60,166,30,184,188,101,158,17,62,252,152,239,189,249,82,57,62,97,205,11,190,235,52,42,189,75,237,22,190,157,208,163,58,47,26,85,62,58,113,169,61,117,19,72,189,232,79,198,189,77,59,187,60,206,248,16,190,235,159,66,62,183,26,66,62,1,188,1,61,81,28,65,60,144,87,138,61,162,86,89,61,109,86,104,61,218,176,187,60,95,35,116,60,219,199,106,62,188,251,246,189,241,217,105,188,97,236,151,61,232,57,78,60,142,248,158,188,129,187,179,61,225,170,35,189,54,228,137,61,105,234,68,61,116,204,48,62,215,152,12,62,92,123,161,188,77,67,146,61,144,163,48,189,111,78,187,187,99,184,95,61,61,241,47,62,7,112,218,189,18,33,32,62,3,182,7,190,118,2,155,60,17,199,133,188,91,138,157,189,44,16,171,60,106,7,68,62,184,117,1,190,221,250,50,62,137,149,72,62,219,159,3,190,118,195,231,188,40,226,44,62,255,228,83,61,81,187,86,62,47,136,15,62,77,182,157,61,196,93,150,189,92,37,119,61,79,34,162,188,98,105,63,189,156,112,2,62,58,253,243,189,137,11,171,61,172,203,243,189,203,39,99,188,27,244,24,62,99,119,203,61,140,196,174,189,95,122,219,189,80,225,71,62,78,167,21,62,3,70,170,189,182,192,102,61,82,190,156,61,104,75,96,62,5,83,237,189,157,187,52,62,106,124,129,189,19,22,248,189,125,30,12,62,93,200,254,188,132,188,156,60,92,202,64,62,113,32,219,61,228,69,237,189,208,203,174,188,63,145,250,189,72,32,16,190,155,87,107,61,7,114,88,62,28,210,62,62,144,193,15,190,206,120,2,189,8,251,62,62,224,90,151,61,80,149,80,61,191,28,239,186,150,223,171,189,189,75,85,188,86,3,157,61,43,123,59,61,203,54,13,61,205,47,86,61,94,48,132,61,5,116,42,62,190,218,239,189,100,89,36,62,39,232,207,61,59,97,25,62,86,255,25,62,119,220,53,62,136,142,158,60,215,242,232,61,25,117,212,189,47,119,222,61,162,171,88,62,145,78,101,61,108,15,201,189,111,244,236,189,106,197,179,189,97,220,28,61,215,82,65,62,178,144,80,62,198,95,68,62,17,142,221,189,241,129,54,62,246,44,162,61,11,112,172,61,197,216,223,61,198,0,196,189,210,5,45,190,119,184,221,60,83,107,74,61,159,105,128,189,106,163,211,61,50,240,203,187,131,5,170,60,128,171,5,62,131,68,10,190,26,39,108,189,227,11,124,61,21,57,31,190,98,42,221,188,71,50,215,60,127,126,235,189,248,20,186,61,206,67,59,59,88,26,130,61,40,168,61,188,195,38,4,190,203,69,29,61,79,207,188,61,135,69,135,189,121,109,101,59,18,206,57,190,53,74,54,190,201,42,201,61,42,18,20,189,25,148,64,190,49,247,229,188,228,190,6,189,131,203,190,187,75,67,110,187,37,249,170,61,229,145,151,60,194,196,87,61,160,230,238,189,79,248,183,189,141,247,250,189,190,140,1,62,24,148,216,189,119,88,40,61,119,116,20,190,255,214,7,62,198,166,247,61,106,117,61,61,137,209,63,190,26,179,171,188,133,219,19,62,34,251,17,190,118,71,196,60,14,140,162,60,15,8,121,60,89,66,197,60,94,67,92,189,205,25,216,61,104,245,136,188,242,88,131,61,236,115,220,60,159,165,35,190,36,93,190,189,5,108,3,62,198,194,178,61,245,224,84,190,114,153,30,62,214,165,242,60,160,132,86,61,11,121,238,60,174,167,68,189,195,210,122,189,82,173,138,189,214,249,217,60,198,64,63,190,139,189,21,61,144,2,136,61,154,126,154,61,103,190,179,61,148,106,163,61,194,81,209,189,57,151,208,189,140,16,19,60,107,199,8,189,121,26,88,189,13,178,90,188,21,90,140,60,70,13,169,61,169,121,11,62,25,140,245,61,166,205,181,189,227,251,4,190,214,40,151,61,183,18,30,62,212,31,3,62,224,186,78,190,89,235,27,62,71,4,35,190,60,138,223,189,157,245,132,189,105,112,231,189,2,192,179,189,163,49,14,62,175,108,221,61,227,124,20,62,65,252,34,189,241,113,229,61,150,12,220,61,238,138,195,61,77,137,144,61,152,222,123,189,62,29,28,62,248,111,18,190,242,0,11,62,240,227,2,189,158,35,20,190,166,39,197,189,195,33,46,190,93,33,3,62,126,60,19,190,192,187,217,61,50,121,164,189,184,124,167,186,10,218,85,189,239,34,168,61,69,64,4,190,1,41,31,189,216,120,19,62,163,73,97,60,149,169,243,189,2,151,192,61,153,9,153,61,198,52,28,62,229,21,153,189,137,235,46,190,36,9,185,60,35,200,200,60,48,79,98,61,210,164,49,189,118,126,57,62,203,7,53,189,187,226,249,189,169,33,27,61,84,191,30,60,69,40,10,62,53,193,7,62,114,118,4,61,11,130,180,61,69,235,7,190,42,91,22,190,9,138,72,188,161,99,189,61,118,195,117,61,6,55,142,189,136,52,180,186,34,182,27,190,197,82,183,61,17,243,0,62,25,142,145,61,129,78,172,61,208,1,8,62,40,52,94,189,11,191,63,190,246,2,172,188,203,11,173,189,230,170,13,62,225,177,22,187,5,174,178,189,150,71,69,61,77,211,51,189,180,248,47,190,144,67,134,61,234,192,243,189,14,146,171,60,67,136,35,190,106,57,167,187,115,119,164,189,184,145,250,61,101,32,137,61,163,28,242,189,232,145,145,61,89,26,194,189,11,55,241,61,239,144,8,62,110,77,140,189,38,194,25,190,116,140,64,190,71,25,123,189,14,208,156,189,111,232,13,62,57,33,146,189,123,115,113,189,186,85,154,189,111,61,150,59,33,46,219,189,243,12,198,61,245,188,35,188,113,150,29,190,199,167,19,190,42,188,207,61,84,91,206,60,28,235,231,189,15,137,139,189,227,19,161,188,10,86,56,60,245,69,119,61,28,108,251,189,211,199,12,62,0,178,30,61,80,26,52,60,36,248,178,188,111,255,6,190,145,193,207,61,75,44,153,61,165,197,16,62,117,142,156,61,174,75,137,187,101,217,153,61,115,222,46,190,96,0,12,61,250,59,202,61,143,66,11,189,77,177,63,190,83,224,251,189,148,125,168,189,138,39,65,190,223,230,250,188,66,147,217,61,100,210,185,189,25,175,67,60,102,6,156,60,235,218,129,61,152,251,130,61,196,96,17,62,180,9,69,190,175,201,32,62,246,136,224,61,142,115,37,190,28,186,34,190,108,226,172,60,153,141,58,190,202,189,69,190,83,24,60,188,158,135,10,190,16,21,37,190,242,39,233,61,230,42,34,190,182,103,246,187,42,170,12,62,136,86,17,190,54,15,108,61,34,46,68,61,80,6,24,190,158,191,246,61,252,180,215,61,157,185,170,61,183,68,115,60,31,177,113,61,197,179,155,188,212,97,86,188,44,62,1,62,164,176,246,188,5,191,21,189,46,171,28,62,43,106,178,61,192,92,13,190,44,255,161,60,132,213,252,61,144,151,226,189,7,190,18,190,220,235,194,189,19,93,35,188,114,150,241,61,10,51,21,189,6,191,34,190,66,231,128,61,40,13,255,61,2,12,39,188,55,3,143,189,53,129,53,189,24,167,146,189,186,180,22,62,186,79,134,188,121,37,29,189,122,20,217,61,160,166,9,62,241,182,204,61,163,194,38,62,100,74,139,61,143,165,248,61,161,90,234,61,112,75,203,61,176,45,37,190,228,89,50,190,104,75,167,189,68,162,44,190,33,3,173,61,223,38,4,189,92,151,138,60,121,98,254,189,201,238,247,61,3,199,244,60,36,43,20,190,137,212,68,189,36,85,156,189,58,252,137,188,90,186,155,61,115,52,191,61,176,6,7,190,146,186,136,188,172,63,214,189,36,104,60,62,199,207,125,61,230,194,165,60,20,31,18,61,214,22,41,190,44,63,32,61,66,130,198,61,105,119,33,190,22,84,19,62,219,3,144,189,79,171,42,189,177,248,210,189,223,202,207,61,139,168,82,190,199,63,58,190,142,218,155,61,172,201,147,189,62,57,74,190,174,145,181,188,2,40,67,61,77,252,222,189,88,232,16,190,199,98,25,190,185,21,35,190,108,173,153,189,92,190,87,190,43,126,59,190,226,108,0,190,54,226,155,189,2,93,179,189,2,104,7,62,39,61,137,189,162,202,42,59,140,116,54,62,215,125,151,188,145,215,4,190,57,115,206,61,40,24,170,186,36,128,183,60,83,143,37,62,225,50,162,188,33,168,202,61,243,38,160,61,160,60,67,189,135,53,252,189,9,196,20,190,119,211,67,190,64,98,7,190,84,148,6,62,117,71,233,189,212,163,62,190,4,100,67,62,218,45,138,61,60,80,1,61,134,136,190,189,195,150,10,190,115,111,67,59,40,200,11,188,110,233,251,60,247,237,56,190,151,13,218,189,86,119,63,190,146,182,194,60,120,160,216,188,77,245,12,189,233,41,182,189,67,166,223,188,68,54,5,61,138,93,71,190,217,36,58,62,68,13,129,189,217,249,17,62,87,179,227,60,244,207,177,189,207,106,9,61,108,159,211,58,109,141,8,62,3,245,175,188,201,141,194,189,135,109,137,61,51,81,48,188,222,248,80,189,129,47,0,61,24,73,217,61,227,58,45,189,41,254,28,61,37,221,236,61,30,51,75,61,67,225,13,62,103,71,228,189,206,197,7,190,199,191,236,61,236,194,200,186,162,29,234,60,233,155,238,61,53,154,30,60,73,59,58,62,127,165,220,61,35,5,138,189,137,140,5,60,23,146,123,61,95,214,132,61,247,71,34,190,4,68,86,188,65,49,179,189,141,242,141,188,251,47,178,189,127,95,208,189,225,158,104,61,249,178,210,189,138,192,59,61,151,16,190,189,58,99,186,189,27,128,247,189,5,140,125,189,156,76,104,60,52,40,22,190,202,2,164,189,138,63,215,189,38,99,26,190,233,248,211,61,244,211,161,189,96,99,16,62,147,162,48,61,204,105,123,61,178,206,64,190,36,189,3,62,192,122,30,190,214,36,66,190,90,141,100,61,183,7,64,61,225,227,191,189,124,105,216,189,153,219,100,190,230,12,237,61,60,66,251,60,246,89,22,189,216,31,228,189,168,111,200,189,230,247,65,190,217,116,188,189,16,35,131,189,93,176,249,187,3,217,53,62,221,88,3,190,58,217,78,61,189,35,53,62,27,7,110,189,211,113,135,60,167,247,219,61,74,93,217,188,140,45,237,189,199,252,1,62,17,153,130,60,63,90,255,60,124,189,67,62,111,139,0,61,158,40,173,61,140,39,129,189,116,43,41,61,110,64,240,189,168,15,146,189,86,8,195,187,225,216,193,189,10,6,19,62,235,205,20,190,120,168,227,61,33,128,212,189,171,6,222,60,148,93,55,62,60,154,184,189,121,213,222,189,116,142,71,188,254,138,161,189,109,27,26,190,224,90,10,60,210,74,7,190,46,97,61,60,42,31,44,190,252,26,195,189,243,59,214,61,132,82,84,188,42,218,238,60,33,249,128,61,87,204,62,62,236,117,132,189,150,172,38,190,87,124,158,60,240,117,109,60,57,160,217,60,79,251,29,61,126,235,231,61,6,67,250,189,51,184,241,189,130,174,202,59,6,145,234,187,17,79,64,62,124,161,219,189,45,33,108,61,31,66,195,189,90,165,8,62,124,150,174,187,112,58,63,62,154,11,98,188,11,201,84,190,132,167,60,61,219,44,175,61,12,138,218,189,184,153,149,189,94,215,107,61,209,61,24,190,224,234,81,188,182,245,210,60,240,244,34,189,143,185,102,189,168,79,164,61,141,19,216,61,133,246,177,189,75,67,196,189,95,143,57,190,68,254,241,188,69,22,30,188,155,113,231,188,201,8,212,60,19,52,208,189,36,36,65,190,120,63,27,188,193,77,246,189,50,242,163,189,130,159,27,190,57,79,146,189,104,215,0,62,131,34,107,60,108,174,31,62,250,34,239,61,10,224,37,62,49,241,88,61,229,206,219,189,166,63,109,61,142,159,203,188,137,56,79,61,188,125,128,189,215,162,109,188,14,65,131,189,58,192,131,61,68,174,211,60,244,106,251,188,197,150,222,61,9,245,222,189,85,140,15,190,78,136,156,59,42,214,195,61,155,134,185,189,18,127,58,61,146,41,33,190,155,239,193,61,139,244,179,61,145,63,228,61,194,188,3,188,229,60,38,190,78,223,10,190,14,124,205,189,174,74,248,60,48,198,39,189,184,98,205,60,217,2,18,61,187,69,164,61,81,105,94,61,182,159,143,61,199,25,157,187,248,59,100,61,251,166,153,61,66,103,42,61,50,250,91,61,204,188,133,189,106,175,7,190,26,112,56,190,68,213,182,189,180,39,248,189,208,182,80,190,195,180,203,61,230,57,45,189,211,192,202,189,68,64,25,62,239,183,32,62,220,84,192,189,209,187,33,190,73,178,112,61,92,208,235,61,62,106,188,61,26,208,235,60,202,253,255,255,4,0,0,0,128,1,0,0,42,140,224,62,225,0,24,62,136,13,189,62,57,206,180,190,44,134,25,62,155,226,162,190,74,64,236,190,63,86,4,190,106,61,58,190,136,18,21,62,135,221,125,61,132,46,198,62,140,209,238,62,252,155,93,190,246,186,70,189,129,205,15,190,129,30,150,189,188,255,190,188,50,218,189,60,87,241,163,62,82,184,212,61,125,231,1,62,68,132,183,190,190,197,183,188,217,50,223,190,51,22,203,190,217,26,246,61,128,228,26,190,185,116,43,62,42,125,173,61,240,75,121,190,188,212,224,62,84,234,103,190,110,158,115,62,222,251,113,190,34,106,215,62,80,228,170,190,46,109,146,62,134,144,155,189,28,186,0,189,63,132,168,190,244,223,157,62,119,37,59,189,7,202,171,61,76,71,0,190,53,236,138,190,57,24,138,190,103,120,145,190,255,43,206,62,222,209,203,190,73,158,87,188,185,42,123,62,22,99,68,189,216,157,101,61,12,207,55,61,158,7,15,189,136,223,181,190,55,87,196,190,177,14,203,62,173,239,106,61,89,101,110,61,137,194,58,62,235,194,17,190,207,117,60,62,106,161,141,62,122,70,191,190,68,168,205,189,92,117,130,190,177,41,9,190,48,53,145,190,76,116,173,190,95,58,216,62,50,185,132,189,110,107,213,61,5,249,42,62,158,86,130,190,196,202,145,62,246,62,176,190,226,33,225,190,24,253,8,189,44,57,54,190,70,185,201,62,56,55,198,190,124,60,178,190,213,89,234,189,163,165,130,62,92,32,145,62,205,1,195,62,146,59,221,62,221,79,218,60,201,248,29,61,38,181,43,62,78,3,137,61,157,90,22,190,216,68,80,190,219,182,71,62,86,255,255,255,4,0,0,0,12,0,0,0,38,30,145,188,225,73,36,60,222,43,26,60,152,251,255,255,156,251,255,255,15,0,0,0,77,76,73,82,32,67,111,110,118,101,114,116,101,100,46,0,1,0,0,0,20,0,0,0,0,0,14,0,24,0,20,0,16,0,12,0,8,0,4,0,14,0,0,0,20,0,0,0,28,0,0,0,236,0,0,0,240,0,0,0,244,0,0,0,4,0,0,0,109,97,105,110,0,0,0,0,3,0,0,0,148,0,0,0,80,0,0,0,20,0,0,0,0,0,14,0,26,0,20,0,16,0,12,0,11,0,4,0,14,0,0,0,28,0,0,0,0,0,0,9,28,0,0,0,32,0,0,0,1,0,0,0,0,0,6,0,8,0,4,0,6,0,0,0,0,0,128,63,1,0,0,0,7,0,0,0,1,0,0,0,6,0,0,0,206,255,255,255,16,0,0,0,0,0,0,8,12,0,0,0,16,0,0,0,92,252,255,255,1,0,0,0,6,0,0,0,3,0,0,0,5,0,0,0,2,0,0,0,1,0,0,0,0,0,14,0,22,0,0,0,16,0,12,0,11,0,4,0,14,0,0,0,24,0,0,0,0,0,0,8,24,0,0,0,28,0,0,0,0,0,6,0,8,0,7,0,6,0,0,0,0,0,0,1,1,0,0,0,5,0,0,0,3,0,0,0,0,0,0,0,3,0,0,0,4,0,0,0,1,0,0,0,7,0,0,0,1,0,0,0,0,0,0,0,8,0,0,0,0,3,0,0,172,2,0,0,84,2,0,0,0,2,0,0,144,1,0,0,232,0,0,0,96,0,0,0,4,0,0,0,54,253,255,255,0,0,0,1,20,0,0,0,28,0,0,0,28,0,0,0,8,0,0,0,52,0,0,0,2,0,0,0,255,255,255,255,3,0,0,0,32,253,255,255,27,0,0,0,83,116,97,116,101,102,117,108,80,97,114,116,105,116,105,111,110,101,100,67,97,108,108,95,49,58,48,0,2,0,0,0,1,0,0,0,3,0,0,0,142,253,255,255,0,0,0,1,20,0,0,0,28,0,0,0,28,0,0,0,7,0,0,0,96,0,0,0,2,0,0,0,255,255,255,255,3,0,0,0,120,253,255,255,68,0,0,0,115,101,113,117,101,110,116,105,97,108,95,49,54,95,49,47,100,101,110,115,101,95,51,51,95,49,47,77,97,116,77,117,108,59,115,101,113,117,101,110,116,105,97,108,95,49,54,95,49,47,100,101,110,115,101,95,51,51,95,49,47,66,105,97,115,65,100,100,0,0,0,0,2,0,0,0,1,0,0,0,3,0,0,0,18,254,255,255,0,0,0,1,20,0,0,0,28,0,0,0,28,0,0,0,6,0,0,0,128,0,0,0,2,0,0,0,255,255,255,255,32,0,0,0,252,253,255,255,100,0,0,0,115,101,113,117,101,110,116,105,97,108,95,49,54,95,49,47,100,101,110,115,101,95,51,50,95,49,47,77,97,116,77,117,108,59,115,101,113,117,101,110,116,105,97,108,95,49,54,95,49,47,100,101,110,115,101,95,51,50,95,49,47,82,101,108,117,59,115,101,113,117,101,110,116,105,97,108,95,49,54,95,49,47,100,101,110,115,101,95,51,50,95,49,47,66,105,97,115,65,100,100,0,0,0,0,2,0,0,0,1,0,0,0,32,0,0,0,6,255,255,255,0,0,0,1,16,0,0,0,16,0,0,0,5,0,0,0,80,0,0,0,144,254,255,255,66,0,0,0,115,101,113,117,101,110,116,105,97,108,95,49,54,95,49,47,100,101,110,115,101,95,51,50,95,49,47,82,101,108,117,59,115,101,113,117,101,110,116,105,97,108,95,49,54,95,49,47,100,101,110,115,101,95,51,50,95,49,47,66,105,97,115,65,100,100,0,0,1,0,0,0,32,0,0,0,114,255,255,255,0,0,0,1,16,0,0,0,16,0,0,0,4,0,0,0,48,0,0,0,252,254,255,255,33,0,0,0,115,101,113,117,101,110,116,105,97,108,95,49,54,95,49,47,100,101,110,115,101,95,51,50,95,49,47,77,97,116,77,117,108,0,0,0,2,0,0,0,32,0,0,0,150,0,0,0,194,255,255,255,0,0,0,1,16,0,0,0,16,0,0,0,3,0,0,0,28,0,0,0,76,255,255,255,15,0,0,0,97,114,105,116,104,46,99,111,110,115,116,97,110,116,49,0,2,0,0,0,3,0,0,0,32,0,0,0,0,0,22,0,24,0,20,0,0,0,16,0,12,0,8,0,0,0,0,0,0,0,7,0,22,0,0,0,0,0,0,1,16,0,0,0,16,0,0,0,2,0,0,0,28,0,0,0,160,255,255,255,14,0,0,0,97,114,105,116,104,46,99,111,110,115,116,97,110,116,0,0,1,0,0,0,3,0,0,0,0,0,22,0,28,0,24,0,0,0,20,0,16,0,12,0,0,0,0,0,8,0,7,0,22,0,0,0,0,0,0,1,20,0,0,0,32,0,0,0,32,0,0,0,1,0,0,0,64,0,0,0,2,0,0,0,255,255,255,255,150,0,0,0,4,0,4,0,4,0,0,0,33,0,0,0,115,101,114,118,105,110,103,95,100,101,102,97,117,108,116,95,107,101,114,97,115,95,116,101,110,115,111,114,95,53,57,58,48,0,0,0,2,0,0,0,1,0,0,0,150,0,0,0,2,0,0,0,32,0,0,0,4,0,0,0,244,255,255,255,25,0,0,0,0,0,0,25,12,0,12,0,11,0,0,0,0,0,4,0,12,0,0,0,9,0,0,0,0,0,0,9
};
const unsigned int vibration_model_len = 21484;